{
  "version": "1.0",
  "truncation": null,
  "padding": null,
  "added_tokens": [
    {
      "id": 0,
      "content": "[AI]",
      "single_word": false,
      "lstrip": false,
      "rstrip": false,
      "normalized": false,
      "special": true
    },
    {
      "id": 1,
      "content": "[/AI]",
      "single_word": false,
      "lstrip": false,
      "rstrip": false,
      "normalized": false,
      "special": true
    },
    {
      "id": 2,
      "content": "[OTHER]",
      "single_word": false,
      "lstrip": false,
      "rstrip": false,
      "normalized": false,
      "special": true
    },
    {
      "id": 3,
      "content": "[/OTHER]",
      "single_word": false,
      "lstrip": false,
      "rstrip": false,
      "normalized": false,
      "special": true
    },
    {
      "id": 4,
      "content": "[SYS]",
      "single_word": false,
      "lstrip": false,
      "rstrip": false,
      "normalized": false,
      "special": true
    },
    {
      "id": 5,
      "content": "[/SYS]",
      "single_word": false,
      "lstrip": false,
      "rstrip": false,
      "normalized": false,
      "special": true
    },
    {
      "id": 6,
      "content": "[SEP]",
      "single_word": false,
      "lstrip": false,
      "rstrip": false,
      "normalized": false,
      "special": true
    },
    {
      "id": 7,
      "content": "[RET]",
      "single_word": false,
      "lstrip": false,
      "rstrip": false,
      "normalized": false,
      "special": true
    },
    {
      "id": 8,
      "content": "[/RET]",
      "single_word": false,
      "lstrip": false,
      "rstrip": false,
      "normalized": false,
      "special": true
    },
    {
      "id": 9,
      "content": "[IMG]",
      "single_word": false,
      "lstrip": false,
      "rstrip": false,
      "normalized": false,
      "special": true
    },
    {
      "id": 10,
      "content": "[/IMG]",
      "single_word": false,
      "lstrip": false,
      "rstrip": false,
      "normalized": false,
      "special": true
    },
    {
      "id": 11,
      "content": "<ed>",
      "single_word": false,
      "lstrip": false,
      "rstrip": false,
      "normalized": false,
      "special": true
    },
    {
      "id": 12,
      "content": "<tk>",
      "single_word": false,
      "lstrip": false,
      "rstrip": false,
      "normalized": false,
      "special": true
    },
    {
      "id": 13,
      "content": "</tk>",
      "single_word": false,
      "lstrip": false,
      "rstrip": false,
      "normalized": false,
      "special": true
    },
    {
      "id": 14,
      "content": "<lb>",
      "single_word": false,
      "lstrip": false,
      "rstrip": false,
      "normalized": false,
      "special": true
    },
    {
      "id": 15,
      "content": "</lb>",
      "single_word": false,
      "lstrip": false,
      "rstrip": false,
      "normalized": false,
      "special": true
    },
    {
      "id": 16,
      "content": "<to>",
      "single_word": false,
      "lstrip": false,
      "rstrip": false,
      "normalized": false,
      "special": true
    },
    {
      "id": 17,
      "content": "</to>",
      "single_word": false,
      "lstrip": false,
      "rstrip": false,
      "normalized": false,
      "special": true
    },
    {
      "id": 18,
      "content": "special_token_1",
      "single_word": false,
      "lstrip": false,
      "rstrip": false,
      "normalized": false,
      "special": true
    },
    {
      "id": 19,
      "content": "special_token_2",
      "single_word": false,
      "lstrip": false,
      "rstrip": false,
      "normalized": false,
      "special": true
    },
    {
      "id": 20,
      "content": "special_token_3",
      "single_word": false,
      "lstrip": false,
      "rstrip": false,
      "normalized": false,
      "special": true
    },
    {
      "id": 21,
      "content": "special_token_4",
      "single_word": false,
      "lstrip": false,
      "rstrip": false,
      "normalized": false,
      "special": true
    },
    {
      "id": 22,
      "content": "special_token_5",
      "single_word": false,
      "lstrip": false,
      "rstrip": false,
      "normalized": false,
      "special": true
    }
  ],
  "normalizer": null,
  "pre_tokenizer": {
    "type": "ByteLevel",
    "add_prefix_space": false,
    "trim_offsets": true,
    "use_regex": true
  },
  "post_processor": null,
  "decoder": {
    "type": "ByteLevel",
    "add_prefix_space": true,
    "trim_offsets": true,
    "use_regex": true
  },
  "model": {
    "type": "BPE",
    "dropout": null,
    "unk_token": null,
    "continuing_subword_prefix": null,
    "end_of_word_suffix": null,
    "fuse_unk": false,
    "byte_fallback": false,
    "ignore_merges": false,
    "vocab": {
      "[AI]": 0,
      "[/AI]": 1,
      "[OTHER]": 2,
      "[/OTHER]": 3,
      "[SYS]": 4,
      "[/SYS]": 5,
      "[SEP]": 6,
      "[RET]": 7,
      "[/RET]": 8,
      "[IMG]": 9,
      "[/IMG]": 10,
      "<ed>": 11,
      "<tk>": 12,
      "</tk>": 13,
      "<lb>": 14,
      "</lb>": 15,
      "<to>": 16,
      "</to>": 17,
      "special_token_1": 18,
      "special_token_2": 19,
      "special_token_3": 20,
      "special_token_4": 21,
      "special_token_5": 22,
      "!": 23,
      "\"": 24,
      "#": 25,
      "$": 26,
      "%": 27,
      "&": 28,
      "'": 29,
      "(": 30,
      ")": 31,
      "*": 32,
      "+": 33,
      ",": 34,
      "-": 35,
      ".": 36,
      "/": 37,
      "0": 38,
      "1": 39,
      "2": 40,
      "3": 41,
      "4": 42,
      "5": 43,
      "6": 44,
      "7": 45,
      "8": 46,
      "9": 47,
      ":": 48,
      ";": 49,
      "<": 50,
      "=": 51,
      ">": 52,
      "?": 53,
      "@": 54,
      "A": 55,
      "B": 56,
      "C": 57,
      "D": 58,
      "E": 59,
      "F": 60,
      "G": 61,
      "H": 62,
      "I": 63,
      "J": 64,
      "K": 65,
      "L": 66,
      "M": 67,
      "N": 68,
      "O": 69,
      "P": 70,
      "Q": 71,
      "R": 72,
      "S": 73,
      "T": 74,
      "U": 75,
      "V": 76,
      "W": 77,
      "X": 78,
      "Y": 79,
      "Z": 80,
      "[": 81,
      "\\": 82,
      "]": 83,
      "^": 84,
      "_": 85,
      "`": 86,
      "a": 87,
      "b": 88,
      "c": 89,
      "d": 90,
      "e": 91,
      "f": 92,
      "g": 93,
      "h": 94,
      "i": 95,
      "j": 96,
      "k": 97,
      "l": 98,
      "m": 99,
      "n": 100,
      "o": 101,
      "p": 102,
      "q": 103,
      "r": 104,
      "s": 105,
      "t": 106,
      "u": 107,
      "v": 108,
      "w": 109,
      "x": 110,
      "y": 111,
      "z": 112,
      "{": 113,
      "|": 114,
      "}": 115,
      "~": 116,
      "¡": 117,
      "¢": 118,
      "£": 119,
      "¤": 120,
      "¥": 121,
      "¦": 122,
      "§": 123,
      "¨": 124,
      "©": 125,
      "ª": 126,
      "«": 127,
      "¬": 128,
      "®": 129,
      "¯": 130,
      "°": 131,
      "±": 132,
      "²": 133,
      "³": 134,
      "´": 135,
      "µ": 136,
      "¶": 137,
      "·": 138,
      "¸": 139,
      "¹": 140,
      "º": 141,
      "»": 142,
      "¼": 143,
      "½": 144,
      "¾": 145,
      "¿": 146,
      "À": 147,
      "Á": 148,
      "Â": 149,
      "Ã": 150,
      "Ä": 151,
      "Å": 152,
      "Æ": 153,
      "Ç": 154,
      "È": 155,
      "É": 156,
      "Ê": 157,
      "Ë": 158,
      "Ì": 159,
      "Í": 160,
      "Î": 161,
      "Ï": 162,
      "Ð": 163,
      "Ñ": 164,
      "Ò": 165,
      "Ó": 166,
      "Ô": 167,
      "Õ": 168,
      "Ö": 169,
      "×": 170,
      "Ø": 171,
      "Ù": 172,
      "Ú": 173,
      "Û": 174,
      "Ü": 175,
      "Ý": 176,
      "Þ": 177,
      "ß": 178,
      "à": 179,
      "á": 180,
      "â": 181,
      "ã": 182,
      "ä": 183,
      "å": 184,
      "æ": 185,
      "ç": 186,
      "è": 187,
      "é": 188,
      "ê": 189,
      "ë": 190,
      "ì": 191,
      "í": 192,
      "î": 193,
      "ï": 194,
      "ð": 195,
      "ñ": 196,
      "ò": 197,
      "ó": 198,
      "ô": 199,
      "õ": 200,
      "ö": 201,
      "÷": 202,
      "ø": 203,
      "ù": 204,
      "ú": 205,
      "û": 206,
      "ü": 207,
      "ý": 208,
      "þ": 209,
      "ÿ": 210,
      "Ā": 211,
      "ā": 212,
      "Ă": 213,
      "ă": 214,
      "Ą": 215,
      "ą": 216,
      "Ć": 217,
      "ć": 218,
      "Ĉ": 219,
      "ĉ": 220,
      "Ċ": 221,
      "ċ": 222,
      "Č": 223,
      "č": 224,
      "Ď": 225,
      "ď": 226,
      "Đ": 227,
      "đ": 228,
      "Ē": 229,
      "ē": 230,
      "Ĕ": 231,
      "ĕ": 232,
      "Ė": 233,
      "ė": 234,
      "Ę": 235,
      "ę": 236,
      "Ě": 237,
      "ě": 238,
      "Ĝ": 239,
      "ĝ": 240,
      "Ğ": 241,
      "ğ": 242,
      "Ġ": 243,
      "ġ": 244,
      "Ģ": 245,
      "ģ": 246,
      "Ĥ": 247,
      "ĥ": 248,
      "Ħ": 249,
      "ħ": 250,
      "Ĩ": 251,
      "ĩ": 252,
      "Ī": 253,
      "ī": 254,
      "Ĭ": 255,
      "ĭ": 256,
      "Į": 257,
      "į": 258,
      "İ": 259,
      "ı": 260,
      "Ĳ": 261,
      "ĳ": 262,
      "Ĵ": 263,
      "ĵ": 264,
      "Ķ": 265,
      "ķ": 266,
      "ĸ": 267,
      "Ĺ": 268,
      "ĺ": 269,
      "Ļ": 270,
      "ļ": 271,
      "Ľ": 272,
      "ľ": 273,
      "Ŀ": 274,
      "ŀ": 275,
      "Ł": 276,
      "ł": 277,
      "Ń": 278,
      "Ġt": 279,
      "Ġa": 280,
      "in": 281,
      "he": 282,
      "re": 283,
      "ï¼": 284,
      "ä¸": 285,
      "on": 286,
      "at": 287,
      "çļ": 288,
      "çļĦ": 289,
      "ï¼Į": 290,
      "Ġs": 291,
      "Ġc": 292,
      "nd": 293,
      "ãĢ": 294,
      "er": 295,
      "Ġthe": 296,
      "es": 297,
      "en": 298,
      "or": 299,
      "an": 300,
      "Ġand": 301,
      "ing": 302,
      "Ġp": 303,
      "it": 304,
      "al": 305,
      "ãĢĤ": 306,
      "Ġo": 307,
      "Ġw": 308,
      "ä»": 309,
      "Ġto": 310,
      "is": 311,
      "ou": 312,
      "Ġm": 313,
      "äº": 314,
      "Ġin": 315,
      "Ġf": 316,
      "Ġb": 317,
      "ed": 318,
      "ion": 319,
      "åı": 320,
      "ic": 321,
      "Ġd": 322,
      "Ġof": 323,
      "le": 324,
      "ar": 325,
      "ro": 326,
      "ĠĠ": 327,
      "åħ": 328,
      "ent": 329,
      "æľ": 330,
      "Ġe": 331,
      "åĴ": 332,
      "è¿": 333,
      "ä½": 334,
      "åĴĮ": 335,
      "æĪ": 336,
      "å®": 337,
      "åĪ": 338,
      "ve": 339,
      "us": 340,
      "Ġre": 341,
      "Ġh": 342,
      "Ġth": 343,
      "as": 344,
      "ct": 345,
      "çĶ": 346,
      "om": 347,
      "åľ": 348,
      "å¤": 349,
      "æĺ": 350,
      "åĬ": 351,
      "åĲ": 352,
      "ä¸Ģ": 353,
      "im": 354,
      "è¯": 355,
      "æĸ": 356,
      "ation": 357,
      "lo": 358,
      "ç»": 359,
      "Ġbe": 360,
      "ãĢģ": 361,
      "id": 362,
      "Ġcan": 363,
      "il": 364,
      "æĺ¯": 365,
      "ä¹": 366,
      "è®": 367,
      "ĠA": 368,
      "Ġthat": 369,
      "ĠT": 370,
      "ä»¥": 371,
      "ch": 372,
      "Ġy": 373,
      "ce": 374,
      "ï¼ļ": 375,
      "ot": 376,
      "ers": 377,
      "Ġn": 378,
      "éĢ": 379,
      "ra": 380,
      "å°": 381,
      "Ġg": 382,
      "Ġyou": 383,
      "åŃ": 384,
      "Ġpro": 385,
      "et": 386,
      "åº": 387,
      "åľ¨": 388,
      "ly": 389,
      "Ġis": 390,
      "ä¸ª": 391,
      "Ġl": 392,
      "ur": 393,
      "Ġfor": 394,
      "åı¯": 395,
      "éĩ": 396,
      "st": 397,
      "çļĦæ": 398,
      "ut": 399,
      "Ġhe": 400,
      "if": 401,
      "ĥ½": 402,
      "ä¼": 403,
      "ĠI": 404,
      "è¡": 405,
      "ir": 406,
      "ith": 407,
      "å¹": 408,
      "Ġare": 409,
      "ig": 410,
      "Ġst": 411,
      "el": 412,
      "ol": 413,
      "å¸": 414,
      "ul": 415,
      "æĿ": 416,
      "æĪĳ": 417,
      "Ġon": 418,
      "è¦": 419,
      "æľī": 420,
      "æĹ": 421,
      "å¯": 422,
      "è§": 423,
      "è¦ģ": 424,
      "Ġus": 425,
      "ay": 426,
      "æķ": 427,
      "çī": 428,
      "ow": 429,
      "ment": 430,
      "çĶ¨": 431,
      "ess": 432,
      "ä¸Ń": 433,
      "ä»¬": 434,
      "äºº": 435,
      "åĩ": 436,
      "Ġex": 437,
      "ĠĠĠĠ": 438,
      "åĽ": 439,
      "åĮ": 440,
      "å¼": 441,
      "Ġcon": 442,
      "se": 443,
      "èĥ½": 444,
      "çİ": 445,
      "Ġan": 446,
      "Ġwith": 447,
      "ä¸º": 448,
      "ate": 449,
      "iv": 450,
      "am": 451,
      "Ġas": 452,
      "ure": 453,
      "è¿Ļ": 454,
      "åĨ": 455,
      "çŃ": 456,
      "Ġor": 457,
      "å·": 458,
      "Ġal": 459,
      "ies": 460,
      "ç§": 461,
      "Ġim": 462,
      "æĢ": 463,
      "ver": 464,
      "ab": 465,
      "äºĨ": 466,
      "Ġsu": 467,
      "Ġde": 468,
      "ge": 469,
      "th": 470,
      "åı¯ä»¥": 471,
      "èĢ": 472,
      "ä¸į": 473,
      "å¾": 474,
      "ĠAI": 475,
      "Ġen": 476,
      "éĹ": 477,
      "æī": 478,
      "ak": 479,
      "ive": 480,
      "Ġmo": 481,
      "å¥": 482,
      "éĿ": 483,
      "çĽ": 484,
      "ity": 485,
      "ä¿": 486,
      "un": 487,
      "è´": 488,
      "åį": 489,
      "Ġit": 490,
      "Ġimp": 491,
      "ect": 492,
      "æł": 493,
      "å½": 494,
      "èĩ": 495,
      "é¢": 496,
      "åĵ": 497,
      "æ³": 498,
      "ort": 499,
      "ad": 500,
      "æŀ": 501,
      "em": 502,
      "Ġcom": 503,
      "å¦": 504,
      "her": 505,
      "ere": 506,
      "ĠS": 507,
      "ial": 508,
      "ĠC": 509,
      "ĠThe": 510,
      "çĲ": 511,
      "çĶŁ": 512,
      "æĦ": 513,
      "pp": 514,
      "æŃ": 515,
      "æĸ¹": 516,
      "qu": 517,
      "Ġwh": 518,
      "å¦Ĥ": 519,
      "éľ": 520,
      "ant": 521,
      "Ġle": 522,
      "Ġv": 523,
      "æĭ": 524,
      "æĬ": 525,
      "ust": 526,
      "æĹ¶": 527,
      "çŃī": 528,
      "åĳ": 529,
      "å¯¹": 530,
      "ter": 531,
      "ld": 532,
      "è¡Į": 533,
      "Ġch": 534,
      "ud": 535,
      "éľĢ": 536,
      "æ°": 537,
      "æĪĲ": 538,
      "Ġ|": 539,
      "ac": 540,
      "ain": 541,
      "iz": 542,
      "æı": 543,
      "ions": 544,
      "Ġha": 545,
      "æĽ": 546,
      "--": 547,
      "æĿ¥": 548,
      "ome": 549,
      "å¿": 550,
      "'s": 551,
      "Ġne": 552,
      "est": 553,
      "ä¾": 554,
      "um": 555,
      "åĪ°": 556,
      "åľ°": 557,
      "ist": 558,
      "âĢ": 559,
      "çī©": 560,
      "ä¸Ģä¸ª": 561,
      "lp": 562,
      "æİ": 563,
      "èĩª": 564,
      "Ġhelp": 565,
      "Ġtheir": 566,
      "æĶ": 567,
      "ä½ľ": 568,
      "ä¼ļ": 569,
      "æĮ": 570,
      "æĪĳä»¬": 571,
      "nt": 572,
      "äºİ": 573,
      "åĪĨ": 574,
      "res": 575,
      "pe": 576,
      "åĩº": 577,
      "ide": 578,
      "æĥ": 579,
      "ĠH": 580,
      "è¾": 581,
      "ĠM": 582,
      "ff": 583,
      "æ¯": 584,
      "od": 585,
      "ical": 586,
      "Ġwor": 587,
      "ä¸Ĭ": 588,
      "are": 589,
      "æĽ´": 590,
      "Ġyour": 591,
      "ä¸ĭ": 592,
      "èµ": 593,
      "ations": 594,
      "æķ°": 595,
      "Ġte": 596,
      "åİ": 597,
      "çĲĨ": 598,
      "ĠTh": 599,
      "è¿ĩ": 600,
      "å¹¶": 601,
      "du": 602,
      "éĿ¢": 603,
      "Ġad": 604,
      "ill": 605,
      "æµ": 606,
      "å¥½": 607,
      "oc": 608,
      "act": 609,
      "éľĢè¦ģ": 610,
      "ä»ĸ": 611,
      "å±": 612,
      "Ġr": 613,
      "Ġmore": 614,
      "åŃ¦": 615,
      "ç®": 616,
      "igh": 617,
      "äºĽ": 618,
      "ĠB": 619,
      "åĬ¨": 620,
      "åĵģ": 621,
      "èī": 622,
      "ple": 623,
      "Ġinc": 624,
      "åĲĮ": 625,
      "Ġexp": 626,
      "ould": 627,
      "ä½ł": 628,
      "æį": 629,
      "æıĲ": 630,
      "å¤§": 631,
      "çİ°": 632,
      "pt": 633,
      "ĠP": 634,
      "all": 635,
      "åĬł": 636,
      "ç§į": 637,
      "Ġse": 638,
      "åĬĽ": 639,
      "out": 640,
      "Ġhave": 641,
      "çº": 642,
      "ä½ĵ": 643,
      "Ġprov": 644,
      "åĮĸ": 645,
      "å¤ļ": 646,
      "å®ļ": 647,
      "Ġused": 648,
      "éĢļ": 649,
      "cc": 650,
      "è¿Ľ": 651,
      "æ´": 652,
      "Ġsh": 653,
      "Ġab": 654,
      "os": 655,
      "Ġres": 656,
      "ĠThis": 657,
      "ç¨": 658,
      "æĢ§": 659,
      "age": 660,
      "ri": 661,
      "æ¸": 662,
      "able": 663,
      "åŃĲ": 664,
      "Ġby": 665,
      "åıĳ": 666,
      "éĩı": 667,
      "åºĶ": 668,
      "Ġlo": 669,
      "ä½¿": 670,
      "åħ¶": 671,
      "é«": 672,
      "éĻ": 673,
      "é«ĺ": 674,
      "åº¦": 675,
      "è§£": 676,
      "é£": 677,
      "å°Ĩ": 678,
      "æ³ķ": 679,
      "and": 680,
      "ä¿Ŀ": 681,
      "ans": 682,
      "for": 683,
      "rom": 684,
      "reat": 685,
      "Ġpl": 686,
      "çļĦç": 687,
      "å¸¸": 688,
      "è½": 689,
      "Ġwe": 690,
      "è¡¨": 691,
      "ake": 692,
      "æĪĸ": 693,
      "é¢ĺ": 694,
      "åŁ": 695,
      "Ġme": 696,
      "æĸĩ": 697,
      "ther": 698,
      "ke": 699,
      "å®¶": 700,
      "åĲĪ": 701,
      "æľĢ": 702,
      "ine": 703,
      "Ġsome": 704,
      "ç±": 705,
      "éĩį": 706,
      "æŀľ": 707,
      "ĠW": 708,
      "ĠE": 709,
      "éĺ": 710,
      "our": 711,
      "rou": 712,
      "çĤ": 713,
      "æ±": 714,
      "åħ³": 715,
      "Ġint": 716,
      "ance": 717,
      "ä¹Ł": 718,
      "éģ": 719,
      "ĠĠĠ": 720,
      "å®ĥ": 721,
      "ag": 722,
      "æ¬": 723,
      "00": 724,
      "è°": 725,
      "ult": 726,
      "yst": 727,
      "éĹ´": 728,
      "ç³": 729,
      "Ġtr": 730,
      "pl": 731,
      "art": 732,
      "æĦŁ": 733,
      "æĤ": 734,
      "ata": 735,
      "ĠF": 736,
      "form": 737,
      "è®¡": 738,
      "Ġfrom": 739,
      "ĠD": 740,
      "éĹ®": 741,
      "ight": 742,
      "ces": 743,
      "æį®": 744,
      "lop": 745,
      "ä¹ĭ": 746,
      "Ġfe": 747,
      "åģ": 748,
      "velop": 749,
      "Ġ1": 750,
      "åĽł": 751,
      "ks": 752,
      "æ²": 753,
      "Ġu": 754,
      "å°ı": 755,
      "ystem": 756,
      "Ġdis": 757,
      "ĠR": 758,
      "gy": 759,
      "å·¥": 760,
      "ç¨ĭ": 761,
      "å¢": 762,
      "ence": 763,
      "èĤ": 764,
      "ç¡": 765,
      "Ġtra": 766,
      "å»": 767,
      "åħ¥": 768,
      "ign": 769,
      "alth": 770,
      "Ġsuch": 771,
      "ach": 772,
      "æĻ": 773,
      "arn": 774,
      "Ġdata": 775,
      "è¶": 776,
      "å®ŀ": 777,
      "so": 778,
      "Ġdevelop": 779,
      "ç¤": 780,
      "Ġacc": 781,
      "ast": 782,
      "èĢĮ": 783,
      "Ġ\"": 784,
      "Ġother": 785,
      "å»º": 786,
      "Ġeff": 787,
      "ç«": 788,
      "Ġman": 789,
      "åħ¬": 790,
      "åĢ": 791,
      "çĦ": 792,
      "ms": 793,
      "å¼ı": 794,
      "èī²": 795,
      "å¾Ĺ": 796,
      "ific": 797,
      "Ġj": 798,
      "Ġro": 799,
      "Ġhas": 800,
      "chn": 801,
      "olo": 802,
      "åĪ¶": 803,
      "èĬ": 804,
      "ä½¿çĶ¨": 805,
      "ous": 806,
      "ual": 807,
      "Ġat": 808,
      "Ġem": 809,
      "ell": 810,
      "Ġsystem": 811,
      "Ġhealth": 812,
      "ities": 813,
      "Ġexam": 814,
      "ib": 815,
      "éĶ": 816,
      "Ġabout": 817,
      "äº§": 818,
      "åĲİ": 819,
      "æĦı": 820,
      "ç±»": 821,
      "Ġpre": 822,
      "æĤ¨": 823,
      "Ġalso": 824,
      "ents": 825,
      "Ġind": 826,
      "ind": 827,
      "éĢĤ": 828,
      "Ġtechn": 829,
      "ress": 830,
      "æĥħ": 831,
      "éĹ®é¢ĺ": 832,
      "Ġuse": 833,
      "ï¼Ł": 834,
      "Ġincl": 835,
      "Ġspe": 836,
      "ich": 837,
      "ps": 838,
      "æľº": 839,
      "Ġthey": 840,
      "ie": 841,
      "Ġhow": 842,
      "Ġwork": 843,
      "ä¸ļ": 844,
      "ç´": 845,
      "Ġimpro": 846,
      "Ġlearn": 847,
      "æĸ°": 848,
      "çĤ¹": 849,
      "Ġcont": 850,
      "ard": 851,
      "çĦ¶": 852,
      "æľ¬": 853,
      "ç³»": 854,
      "ç¡®": 855,
      "è®¾": 856,
      "åħ·": 857,
      "éĢī": 858,
      "èĢħ": 859,
      "éħ": 860,
      "gh": 861,
      "__": 862,
      "Ġnot": 863,
      "çľ": 864,
      "çĽ¸": 865,
      "Ġprovide": 866,
      "åī": 867,
      "ional": 868,
      "Ġens": 869,
      "ä¸İ": 870,
      "è´¨": 871,
      "ential": 872,
      "ç»ı": 873,
      "å¿ĥ": 874,
      "ang": 875,
      "æŃ¤": 876,
      "end": 877,
      "Ġpo": 878,
      "è¿Ľè¡Į": 879,
      "ice": 880,
      "Ġ-": 881,
      "Ġway": 882,
      "å·±": 883,
      "Ġ2": 884,
      "ime": 885,
      "ç½": 886,
      "èĩªå·±": 887,
      "Ġun": 888,
      "bot": 889,
      "Ġinclud": 890,
      "ated": 891,
      "æ°´": 892,
      "éķ": 893,
      "æĮģ": 894,
      "ä»£": 895,
      "é¡": 896,
      "æīĢ": 897,
      "çĿ": 898,
      "pport": 899,
      "ood": 900,
      "ike": 901,
      "ru": 902,
      "Ġcomm": 903,
      "ĠL": 904,
      "ä¿¡": 905,
      "ĠG": 906,
      "çŁ": 907,
      "çĶµ": 908,
      "Ġwas": 909,
      "low": 910,
      "erv": 911,
      "åĮħ": 912,
      "ĠĠĠĠĠĠĠĠ": 913,
      "Ġwhe": 914,
      "dit": 915,
      "Ġwhich": 916,
      "Ġcomp": 917,
      "éª": 918,
      "ore": 919,
      "ç¾": 920,
      "Ġ=": 921,
      "çī¹": 922,
      "iff": 923,
      "ert": 924,
      "æģ": 925,
      "rit": 926,
      "Ġrec": 927,
      "åĨħ": 928,
      "æĺİ": 929,
      "ors": 930,
      "Ġpat": 931,
      "----": 932,
      "æŁ": 933,
      "Ġapp": 934,
      "ns": 935,
      "åĬ¡": 936,
      "aly": 937,
      "ace": 938,
      "æ´»": 939,
      "ä¾Ľ": 940,
      "av": 941,
      "ä¸»": 942,
      "Ġpers": 943,
      "çĥ": 944,
      "è¯¥": 945,
      "Ġmy": 946,
      "ç©": 947,
      "eri": 948,
      "è®©": 949,
      "æĬĢ": 950,
      "éķ¿": 951,
      "ack": 952,
      "ĠN": 953,
      "Ġdiff": 954,
      "Ġthis": 955,
      "åĿ": 956,
      "Ġensure": 957,
      "å½ĵ": 958,
      "Ġout": 959,
      "Ġcl": 960,
      "Ġk": 961,
      "é¦": 962,
      "ount": 963,
      "çİ¯": 964,
      "åĬ©": 965,
      "Ġtechnolo": 966,
      "Ġthese": 967,
      "ful": 968,
      "éļ": 969,
      "æ·": 970,
      "ä¸ĢäºĽ": 971,
      "Ġsoc": 972,
      "å¼Ģ": 973,
      "å¤©": 974,
      "Ġev": 975,
      "Ġredu": 976,
      "Ġthem": 977,
      "Ġ(": 978,
      "éĥ½": 979,
      "æĪ·": 980,
      "è·": 981,
      "åľº": 982,
      "æ°Ķ": 983,
      "ĠY": 984,
      "è¯Ń": 985,
      "éĢļè¿ĩ": 986,
      "å±ķ": 987,
      "Ġco": 988,
      "å½±": 989,
      "ç¬": 990,
      "Ġanaly": 991,
      "æ¯Ķ": 992,
      "åħ¨": 993,
      "Ġimprove": 994,
      "ç»ĵ": 995,
      "å¹´": 996,
      "çķ": 997,
      "çĿĢ": 998,
      "Ġhum": 999,
      "Ġqu": 1000,
      "ç®Ĺ": 1001,
      "ĠO": 1002,
      "é£Ł": 1003,
      "ility": 1004,
      "Ġsystems": 1005,
      "åıĺ": 1006,
      "ail": 1007,
      "ç¼": 1008,
      "çł": 1009,
      "è¿Ļä¸ª": 1010,
      "æıĲä¾Ľ": 1011,
      "ase": 1012,
      "åŀ": 1013,
      "ments": 1014,
      "Ġpot": 1015,
      "Ġany": 1016,
      "ä½Ĩ": 1017,
      "Ġcons": 1018,
      "ĠIt": 1019,
      "æł¼": 1020,
      "Ġar": 1021,
      "æľ¯": 1022,
      "éĿŀ": 1023,
      "Ġdo": 1024,
      "Ġmay": 1025,
      "æĭ©": 1026,
      "ue": 1027,
      "éĢīæĭ©": 1028,
      "ry": 1029,
      "éĥ": 1030,
      "Ġlike": 1031,
      "ong": 1032,
      "èģ": 1033,
      "``": 1034,
      "ile": 1035,
      "æ±Ĥ": 1036,
      "Ġnew": 1037,
      "ient": 1038,
      "Ġimpact": 1039,
      "è¿ĺ": 1040,
      "æ³¨": 1041,
      "ä¹Ī": 1042,
      "çĽ®": 1043,
      "âĢľ": 1044,
      "âĢĿ": 1045,
      "ef": 1046,
      "ä¾ĭ": 1047,
      "Ġpotential": 1048,
      "ok": 1049,
      "åı¯èĥ½": 1050,
      "Ġtrans": 1051,
      "Ġact": 1052,
      "ï¼ī": 1053,
      "Ġspec": 1054,
      "æ¶": 1055,
      "Ġwill": 1056,
      "äº¤": 1057,
      "ize": 1058,
      "ç¾İ": 1059,
      "å¸Ĥ": 1060,
      "Ġstud": 1061,
      "pon": 1062,
      "èº": 1063,
      "ä¸įåĲĮ": 1064,
      "one": 1065,
      "å¾Ī": 1066,
      "åıĬ": 1067,
      "å¦Ĥæŀľ": 1068,
      "çĲĥ": 1069,
      "ange": 1070,
      "Ġneed": 1071,
      "å¤ĸ": 1072,
      "ety": 1073,
      "aking": 1074,
      "è¯·": 1075,
      "ater": 1076,
      "Ġperson": 1077,
      "ident": 1078,
      "Ġso": 1079,
      "Ġmake": 1080,
      "å¹³": 1081,
      "å¤Ł": 1082,
      "èº«": 1083,
      "ï¼Ī": 1084,
      "Ġinform": 1085,
      "æ¡": 1086,
      "äºĭ": 1087,
      "åıĹ": 1088,
      "ased": 1089,
      "ild": 1090,
      "Ġoff": 1091,
      "Ġthere": 1092,
      "cis": 1093,
      "è¢": 1094,
      "éĥ¨": 1095,
      "æ¯ı": 1096,
      "ract": 1097,
      "ass": 1098,
      "Ġlearning": 1099,
      "åĸ": 1100,
      "å½¢": 1101,
      "ire": 1102,
      "ä»İ": 1103,
      "bots": 1104,
      "èĻ": 1105,
      "å¸®": 1106,
      "Ġdes": 1107,
      "ĠIn": 1108,
      "cess": 1109,
      "Ġpe": 1110,
      "ify": 1111,
      "Ġwho": 1112,
      "ä¹ł": 1113,
      "æľŁ": 1114,
      "Ġexperi": 1115,
      "éĤ": 1116,
      "Ġsc": 1117,
      "ep": 1118,
      "ä½ķ": 1119,
      "Ġtime": 1120,
      "éĿŀå¸¸": 1121,
      "æĭ¬": 1122,
      "åķ": 1123,
      "ä»¥ä¸ĭ": 1124,
      "éģĵ": 1125,
      "Ġcommun": 1126,
      "Ġcould": 1127,
      "ap": 1128,
      "èĲ": 1129,
      "è°ĥ": 1130,
      "lic": 1131,
      "duct": 1132,
      "Ġits": 1133,
      "cy": 1134,
      "è¯´": 1135,
      "Ġmed": 1136,
      "Ġcol": 1137,
      "ular": 1138,
      "éĩįè¦ģ": 1139,
      "Ġsp": 1140,
      "åĪ©": 1141,
      "èµ·": 1142,
      "Ġprovid": 1143,
      "ices": 1144,
      "åĻ": 1145,
      "æĸĻ": 1146,
      "Ġimport": 1147,
      "ural": 1148,
      "åŃĹ": 1149,
      "Ġund": 1150,
      "int": 1151,
      "Ġover": 1152,
      "åı¸": 1153,
      "æł¹": 1154,
      "é¥": 1155,
      "ples": 1156,
      "ä»ĸä»¬": 1157,
      "gra": 1158,
      "uring": 1159,
      "now": 1160,
      "åįķ": 1161,
      "è¿ĻäºĽ": 1162,
      "åīį": 1163,
      "å®ī": 1164,
      "Ġpr": 1165,
      "åĮħæĭ¬": 1166,
      "ç»Ļ": 1167,
      "The": 1168,
      "ä½į": 1169,
      "å§": 1170,
      "ç´ł": 1171,
      "åĳĺ": 1172,
      "Ġident": 1173,
      "åŀĭ": 1174,
      "Ġadd": 1175,
      "å¼º": 1176,
      "æĺ¯ä¸Ģ": 1177,
      "ip": 1178,
      "gor": 1179,
      "Ġsupport": 1180,
      "ne": 1181,
      "Ġdiffere": 1182,
      "åħĥ": 1183,
      "Ġass": 1184,
      "åĨ³": 1185,
      "éĽ": 1186,
      "åĲį": 1187,
      "Ġgo": 1188,
      "Ġtechnology": 1189,
      "æĢ»": 1190,
      "è®®": 1191,
      "Ġinter": 1192,
      "Ġinv": 1193,
      "Ġour": 1194,
      "æķĪ": 1195,
      "ustom": 1196,
      "Ġrel": 1197,
      "ife": 1198,
      "åĻ¨": 1199,
      "ings": 1200,
      "ä»·": 1201,
      "Ġpart": 1202,
      "è¢«": 1203,
      "æīĭ": 1204,
      "ary": 1205,
      "Ġrespon": 1206,
      "ĊĠĠĠ": 1207,
      "å¥½çļĦ": 1208,
      "ative": 1209,
      "å¸®åĬ©": 1210,
      "ç»Ł": 1211,
      "æĶ¾": 1212,
      "ĠHere": 1213,
      "çģ": 1214,
      "Ġbut": 1215,
      "æģ¯": 1216,
      "æŃ£": 1217,
      "ark": 1218,
      "åħ¬åı¸": 1219,
      "ory": 1220,
      "å¢ĥ": 1221,
      "lect": 1222,
      "éŁ": 1223,
      "æĥ³": 1224,
      "é£İ": 1225,
      "ating": 1226,
      "Ġam": 1227,
      "its": 1228,
      "æ»": 1229,
      "gorith": 1230,
      "åĵį": 1231,
      "ures": 1232,
      "Ġeffect": 1233,
      "Ġshould": 1234,
      "Ġper": 1235,
      "è±": 1236,
      "ç²": 1237,
      "ict": 1238,
      "Ġalgorith": 1239,
      "uc": 1240,
      "rough": 1241,
      "ä»»": 1242,
      "ä»¶": 1243,
      "Ġbet": 1244,
      "ia": 1245,
      "Ġanalyz": 1246,
      "æł¹æį®": 1247,
      "ized": 1248,
      "æµģ": 1249,
      "è§Ĥ": 1250,
      "è£": 1251,
      "æłĩ": 1252,
      "iron": 1253,
      "Ġcustom": 1254,
      "Ġreg": 1255,
      "Ġpersonal": 1256,
      "èĥ½å¤Ł": 1257,
      "ics": 1258,
      "ivid": 1259,
      "çĪ": 1260,
      "èµĦ": 1261,
      "æŃ¥": 1262,
      "å®¹": 1263,
      "åĪĽ": 1264,
      "èĪ": 1265,
      "ä¹Ĳ": 1266,
      "å¯¼": 1267,
      "gan": 1268,
      "èĬĤ": 1269,
      "Ġall": 1270,
      "ens": 1271,
      "ame": 1272,
      "ness": 1273,
      "Ġup": 1274,
      "ĠU": 1275,
      "èĢĥ": 1276,
      "elf": 1277,
      "åĢ¼": 1278,
      "å°ĳ": 1279,
      "æľį": 1280,
      "ari": 1281,
      "thical": 1282,
      "viron": 1283,
      "èĥ": 1284,
      "ord": 1285,
      "Ġsign": 1286,
      "éĩĮ": 1287,
      "ound": 1288,
      "ople": 1289,
      "åŁº": 1290,
      "Ġinformation": 1291,
      "Ġidentify": 1292,
      "åĽŀ": 1293,
      "Ġcre": 1294,
      "éŁ³": 1295,
      "ible": 1296,
      "ub": 1297,
      "è¿Ĳ": 1298,
      "Ġlead": 1299,
      "æ¸¸": 1300,
      "æ¬¡": 1301,
      "åĨĻ": 1302,
      "éĤ£": 1303,
      "get": 1304,
      "èį": 1305,
      "Ġexample": 1306,
      "ä¼ĺ": 1307,
      "å½±åĵį": 1308,
      "ish": 1309,
      "xt": 1310,
      "æº": 1311,
      "éªĮ": 1312,
      "ob": 1313,
      "å®¢": 1314,
      "å¤ĩ": 1315,
      "åģ¥": 1316,
      "è½¦": 1317,
      "ç¤¾": 1318,
      "ividual": 1319,
      "ered": 1320,
      "les": 1321,
      "Ġenviron": 1322,
      "Ġpeople": 1323,
      "æĺŁ": 1324,
      "çĸ": 1325,
      "çĭ": 1326,
      "Ġdet": 1327,
      "æĹł": 1328,
      "Ġif": 1329,
      "ose": 1330,
      "ite": 1331,
      "å¢ŀ": 1332,
      "éĴ": 1333,
      "åĲĮæĹ¶": 1334,
      "è¿°": 1335,
      "æĸ¹å¼ı": 1336,
      "åĽ½": 1337,
      "é»": 1338,
      "å¤Ħ": 1339,
      "Ġexamples": 1340,
      "æ®": 1341,
      "Ġinto": 1342,
      "æĮĩ": 1343,
      "Ġhuman": 1344,
      "åĲĳ": 1345,
      "ç¤º": 1346,
      "æķ°æį®": 1347,
      "Ġ3": 1348,
      "ĠJ": 1349,
      "èı": 1350,
      "çİ¯å¢ĥ": 1351,
      "als": 1352,
      "erst": 1353,
      "Ġethical": 1354,
      "ç»Ħ": 1355,
      "ä¼ł": 1356,
      "Ġdifferent": 1357,
      "Ġknow": 1358,
      "åºı": 1359,
      "Ġindividual": 1360,
      "æıĲé«ĺ": 1361,
      "round": 1362,
      "å°±": 1363,
      "åıĸ": 1364,
      "åŃĺ": 1365,
      "ä¸¤": 1366,
      "çŁ¥": 1367,
      "ources": 1368,
      "ck": 1369,
      "å£": 1370,
      "ines": 1371,
      "è¾¾": 1372,
      "Ġmany": 1373,
      "æķ´": 1374,
      "æł·": 1375,
      "ditional": 1376,
      "omm": 1377,
      "çĶ±": 1378,
      "éĢł": 1379,
      "å®ĥä»¬": 1380,
      "ues": 1381,
      "Ġment": 1382,
      "Ġimportant": 1383,
      "Ġopt": 1384,
      "Ġloc": 1385,
      "ph": 1386,
      "Ġprocess": 1387,
      "Ġalgorithms": 1388,
      "è®¾è®¡": 1389,
      "Ġsocial": 1390,
      "very": 1391,
      "åĪĻ": 1392,
      "ä¾ĭå¦Ĥ": 1393,
      "è®¤": 1394,
      "Ġaut": 1395,
      "Ġserv": 1396,
      "gg": 1397,
      "äº§åĵģ": 1398,
      "è§Ħ": 1399,
      "çľĭ": 1400,
      "vel": 1401,
      "æĸ¹æ³ķ": 1402,
      "Ġben": 1403,
      "åĽłæŃ¤": 1404,
      "care": 1405,
      "per": 1406,
      "åĬŁ": 1407,
      "å»ºè®®": 1408,
      "Ġpos": 1409,
      "æ¤": 1410,
      "we": 1411,
      "åĮº": 1412,
      "iqu": 1413,
      "Ġreal": 1414,
      "æĹ¥": 1415,
      "Ġreduce": 1416,
      "af": 1417,
      "angu": 1418,
      "Ġsk": 1419,
      "Ġed": 1420,
      "erstand": 1421,
      "åĨµ": 1422,
      "mot": 1423,
      "åħĪ": 1424,
      "ç¥": 1425,
      "åºĶè¯¥": 1426,
      "Ġthrough": 1427,
      "Ġconc": 1428,
      "åıĳå±ķ": 1429,
      "è¯ķ": 1430,
      "æ¡Ī": 1431,
      "Ġenvironment": 1432,
      "åı£": 1433,
      "Ġadv": 1434,
      "åĪ«": 1435,
      "Ġbenef": 1436,
      "æ¸ħ": 1437,
      "åĳ³": 1438,
      "åħī": 1439,
      "Ġdevelopment": 1440,
      "eng": 1441,
      "å¦Ĥä½ķ": 1442,
      "ç®¡": 1443,
      "ivers": 1444,
      "åĲĦ": 1445,
      "Ġris": 1446,
      "row": 1447,
      "ergy": 1448,
      "è®¡ç®Ĺ": 1449,
      "ä¿¡æģ¯": 1450,
      "Ġproduct": 1451,
      "è¾ĥ": 1452,
      "è®º": 1453,
      "èĩªå·±çļĦ": 1454,
      "æĬ¤": 1455,
      "åıį": 1456,
      "åħ¶ä»ĸ": 1457,
      "åĪĹ": 1458,
      "ç»Ĩ": 1459,
      "ç©º": 1460,
      "Ġgreat": 1461,
      "ear": 1462,
      "æºĲ": 1463,
      "ject": 1464,
      "çĶŁæ´»": 1465,
      "ä¸ŃçļĦ": 1466,
      "Ġunderstand": 1467,
      "èĭ": 1468,
      "hat": 1469,
      "Ġprogra": 1470,
      "çĬ": 1471,
      "éĩĳ": 1472,
      "Ġincluding": 1473,
      "Ġaccess": 1474,
      "ĠĠĠĠĠĠĠ": 1475,
      "è¯Ĩ": 1476,
      "ç¦": 1477,
      "og": 1478,
      "è£ħ": 1479,
      "Ġart": 1480,
      "Ġwrit": 1481,
      "Ġincre": 1482,
      "Ġph": 1483,
      "æĸ¹éĿ¢": 1484,
      "Ġpract": 1485,
      "Ġusing": 1486,
      "é¡¹": 1487,
      "æİ¥": 1488,
      "Ġways": 1489,
      "Ġlangu": 1490,
      "æĶ¯": 1491,
      "Ġchall": 1492,
      "åİ»": 1493,
      "____": 1494,
      "imate": 1495,
      "æĸŃ": 1496,
      "è¨": 1497,
      "Ġwell": 1498,
      "ll": 1499,
      "Ġpol": 1500,
      "æĢģ": 1501,
      "Ġra": 1502,
      "Can": 1503,
      "åİŁ": 1504,
      "ber": 1505,
      "è¨Ģ": 1506,
      "ç«ĭ": 1507,
      "Ġgen": 1508,
      "éħį": 1509,
      "æ·±": 1510,
      "te": 1511,
      "ä¸ī": 1512,
      "ç§ĳ": 1513,
      "ĠFor": 1514,
      "çº¿": 1515,
      "çħ": 1516,
      "æ¼": 1517,
      "åķĨ": 1518,
      "æĿĲ": 1519,
      "Ġsignific": 1520,
      "Ġgu": 1521,
      "Ġdecis": 1522,
      "Ġtrain": 1523,
      "Ġag": 1524,
      "Ġcreat": 1525,
      "å®Į": 1526,
      "æĹ¶éĹ´": 1527,
      "Ġone": 1528,
      "èĦ": 1529,
      "Ġnat": 1530,
      "åŃ¦ä¹ł": 1531,
      "çļĦæķ": 1532,
      "ced": 1533,
      "Ġwhen": 1534,
      "Ġbi": 1535,
      "èİ": 1536,
      "æĽ´åĬł": 1537,
      "ives": 1538,
      "port": 1539,
      "å·¥ä½ľ": 1540,
      "ving": 1541,
      "Ġbeen": 1542,
      "æĻº": 1543,
      "Ġlife": 1544,
      "å¼ķ": 1545,
      "arm": 1546,
      "çİĩ": 1547,
      "çĶ¨æĪ·": 1548,
      "ä¹ī": 1549,
      "ä»½": 1550,
      "è¯Ŀ": 1551,
      "iness": 1552,
      "com": 1553,
      "åº·": 1554,
      "åĩı": 1555,
      "ä»Ģ": 1556,
      "è¾ĵ": 1557,
      "Ġvari": 1558,
      "con": 1559,
      "Ġmod": 1560,
      "ä»Ģä¹Ī": 1561,
      "Ġenergy": 1562,
      "æĬĢæľ¯": 1563,
      "ertain": 1564,
      "mm": 1565,
      "verall": 1566,
      "åĪĴ": 1567,
      "Ġrobots": 1568,
      "Ġorgan": 1569,
      "æİ¨": 1570,
      "ants": 1571,
      "åĩĨ": 1572,
      "ds": 1573,
      "æŀģ": 1574,
      "çĻ": 1575,
      "Ġrequ": 1576,
      "Ġess": 1577,
      "ç®Ģ": 1578,
      "ustain": 1579,
      "æ¨": 1580,
      "Ġstr": 1581,
      "cing": 1582,
      "ability": 1583,
      "ree": 1584,
      "Ġeduc": 1585,
      "åİĨ": 1586,
      "Ġcreate": 1587,
      "åģ¥åº·": 1588,
      "Ġdesign": 1589,
      "ips": 1590,
      "åģļ": 1591,
      "èĬ±": 1592,
      "ink": 1593,
      "èıľ": 1594,
      "æī¾": 1595,
      "æ®µ": 1596,
      "æµĭ": 1597,
      "ĠV": 1598,
      "ĠBy": 1599,
      "åĶ": 1600,
      "é¦ĸ": 1601,
      "è¯į": 1602,
      "Ġwhere": 1603,
      "Ġdisc": 1604,
      "äºĨè§£": 1605,
      "ric": 1606,
      "ä¸Ķ": 1607,
      "è¶³": 1608,
      "æĺ¯ä¸Ģä¸ª": 1609,
      "arch": 1610,
      "ç§¯": 1611,
      "å¸¦": 1612,
      "Ġwhile": 1613,
      "Ġsignificant": 1614,
      "çłģ": 1615,
      "æĪ¿": 1616,
      "Ġbeing": 1617,
      "Ġlanguage": 1618,
      "itive": 1619,
      "20": 1620,
      "Ġanalyze": 1621,
      "æĻ¯": 1622,
      "èĮ": 1623,
      "rib": 1624,
      "æ¨¡": 1625,
      "ĠSt": 1626,
      "è´¹": 1627,
      "'t": 1628,
      "Ġhealthcare": 1629,
      "Ġexperience": 1630,
      "Ġ5": 1631,
      "ä¸ªäºº": 1632,
      "ays": 1633,
      "è±¡": 1634,
      "plo": 1635,
      "Ġwould": 1636,
      "èĻĳ": 1637,
      "æĶ¶": 1638,
      "é¢Ħ": 1639,
      "é¢Ĩ": 1640,
      "ä¿ĿæĮģ": 1641,
      "ences": 1642,
      "åıª": 1643,
      "èĩ´": 1644,
      "æĪı": 1645,
      "Ġmental": 1646,
      "Ġfew": 1647,
      "ates": 1648,
      "è¿ĩç¨ĭ": 1649,
      "å®īåħ¨": 1650,
      "Ġsustain": 1651,
      "Ġwere": 1652,
      "å¤ª": 1653,
      "çĮ": 1654,
      "Ġspecific": 1655,
      "Ġworld": 1656,
      "çŃĶ": 1657,
      "```": 1658,
      "Ġtake": 1659,
      "åħ»": 1660,
      "éĢŁ": 1661,
      "ever": 1662,
      "SS": 1663,
      "éĶĢ": 1664,
      "Ġbo": 1665,
      "hes": 1666,
      "Ġmus": 1667,
      "æľįåĬ¡": 1668,
      "è§Ĵ": 1669,
      "ten": 1670,
      "æŀĲ": 1671,
      "pow": 1672,
      "dict": 1673,
      "vent": 1674,
      "10": 1675,
      "çļĦæĹ": 1676,
      "ĸçķ": 1677,
      "Ġprot": 1678,
      "ç½®": 1679,
      "Ġhigh": 1680,
      "Ġbus": 1681,
      "Ġindust": 1682,
      "åĲ¦": 1683,
      "cial": 1684,
      "äººä»¬": 1685,
      "ĠAs": 1686,
      "åĳĬ": 1687,
      "ade": 1688,
      "æĶ¹": 1689,
      "çĹ": 1690,
      "Ġhad": 1691,
      "Ġher": 1692,
      "Ġjust": 1693,
      "ï¼Ľ": 1694,
      "è´Ń": 1695,
      "ç¬¬": 1696,
      "éĵ": 1697,
      "Ġwater": 1698,
      "Ġfood": 1699,
      "éĺŁ": 1700,
      "aus": 1701,
      "Ġchalleng": 1702,
      "åħį": 1703,
      "æĸĩåĮĸ": 1704,
      "Ġmost": 1705,
      "é¸": 1706,
      "ç½ĳ": 1707,
      "çĽ´": 1708,
      "Ġsm": 1709,
      "Ġactiv": 1710,
      "ploy": 1711,
      "Overall": 1712,
      "å¿«": 1713,
      "ruct": 1714,
      "Ġindividuals": 1715,
      "å§ĭ": 1716,
      "gies": 1717,
      "æŁ¥": 1718,
      "çĪ±": 1719,
      "iety": 1720,
      "In": 1721,
      "åĪĨæŀĲ": 1722,
      "è§Ĩ": 1723,
      "æ¸©": 1724,
      "ç»´": 1725,
      "olut": 1726,
      "åŁŁ": 1727,
      "ommend": 1728,
      "Ġcomple": 1729,
      "æķĻ": 1730,
      "Ġbu": 1731,
      "Ġeducation": 1732,
      "ather": 1733,
      "Ġ4": 1734,
      "ting": 1735,
      "Ġfind": 1736,
      "æ²¡": 1737,
      "Ġhis": 1738,
      "ä¹ĭéĹ´": 1739,
      "Ġeffective": 1740,
      "Ġatt": 1741,
      "Ġrese": 1742,
      "èĥ½åĬĽ": 1743,
      "åŁİ": 1744,
      "Ġallow": 1745,
      "Ġav": 1746,
      "Ġpromot": 1747,
      "æĻºèĥ½": 1748,
      "æ»¡": 1749,
      "åħ±": 1750,
      "iew": 1751,
      "come": 1752,
      "ç³»ç»Ł": 1753,
      "Ġrespons": 1754,
      "äºĴ": 1755,
      "Ġcult": 1756,
      "powered": 1757,
      "Ġrecommend": 1758,
      "èĲ¥": 1759,
      "OSS": 1760,
      "Ġchange": 1761,
      "è¯ģ": 1762,
      "ved": 1763,
      "æİĴ": 1764,
      "è§£åĨ³": 1765,
      "ici": 1766,
      "ĠHow": 1767,
      "Ġfeel": 1768,
      "æľĪ": 1769,
      "Ġwhat": 1770,
      "ä»¥åıĬ": 1771,
      "Ġsee": 1772,
      "åŃ©": 1773,
      "bs": 1774,
      "Ġsur": 1775,
      "æ£": 1776,
      "ality": 1777,
      "Ġvis": 1778,
      "ç¡®ä¿Ŀ": 1779,
      "pect": 1780,
      "å®ŀçİ°": 1781,
      "Ġcare": 1782,
      "å¹¿": 1783,
      "ills": 1784,
      "åºŃ": 1785,
      "ases": 1786,
      "å¤į": 1787,
      "åºĶçĶ¨": 1788,
      "çļĦæĥ": 1789,
      "ards": 1790,
      "Ġaddress": 1791,
      "Ġcompan": 1792,
      "Ġinvol": 1793,
      "Ġcustomer": 1794,
      "åĽłä¸º": 1795,
      "Ġstudents": 1796,
      "Ġins": 1797,
      "æ³¨æĦı": 1798,
      "æŀĦ": 1799,
      "æ¬¢": 1800,
      "æµ·": 1801,
      "åıĤ": 1802,
      "èĩªçĦ¶": 1803,
      "é©": 1804,
      "ĠThese": 1805,
      "wn": 1806,
      "æĺĵ": 1807,
      "çĬ¶": 1808,
      "ren": 1809,
      "Ġtreat": 1810,
      "Ġbenefits": 1811,
      "ĊĠĠĠĠĠĠĠ": 1812,
      "å¯¹äºİ": 1813,
      "æĢĿ": 1814,
      "ider": 1815,
      "ĠYes": 1816,
      "ĠK": 1817,
      "åĸľ": 1818,
      "Ġke": 1819,
      "Ġeng": 1820,
      "Ġpop": 1821,
      "ost": 1822,
      "pare": 1823,
      "Ġmon": 1824,
      "æ¬¾": 1825,
      "ĠMOSS": 1826,
      "Ġemot": 1827,
      "Ġac": 1828,
      "ç¼ĸ": 1829,
      "fore": 1830,
      "åı¥": 1831,
      "Ġval": 1832,
      "ily": 1833,
      "Ġiss": 1834,
      "èĤī": 1835,
      "èĩ³": 1836,
      "æ¸¸æĪı": 1837,
      "ween": 1838,
      "Ġinclude": 1839,
      "Ġprotect": 1840,
      "åħ³ç³»": 1841,
      "éĻ©": 1842,
      "Ġsever": 1843,
      "Ġthan": 1844,
      "éľĢæ±Ĥ": 1845,
      "ç»ĥ": 1846,
      "ĠThey": 1847,
      "iss": 1848,
      "ys": 1849,
      "Ġjob": 1850,
      "éĺ³": 1851,
      "æĲ": 1852,
      "Ġbetween": 1853,
      "Ġmach": 1854,
      "--------": 1855,
      "èĢĥèĻĳ": 1856,
      "è´¨éĩı": 1857,
      "Ġbusiness": 1858,
      "wor": 1859,
      "ick": 1860,
      "eg": 1861,
      "åħħ": 1862,
      "ç¯": 1863,
      "æĿ¡": 1864,
      "ner": 1865,
      "apt": 1866,
      "Ġappro": 1867,
      "Ġplay": 1868,
      "æ²¡æľī": 1869,
      "¤Ĳ": 1870,
      "æľª": 1871,
      "æĪĺ": 1872,
      "å®¶åºŃ": 1873,
      "ãĢĭ": 1874,
      "ency": 1875,
      "ĠCh": 1876,
      "ãĢĬ": 1877,
      "Ġproviding": 1878,
      "Ġresources": 1879,
      "âĢĻ": 1880,
      "Ġassist": 1881,
      "Ġnatural": 1882,
      "è¯Ħ": 1883,
      "ä¾¿": 1884,
      "Ġsaf": 1885,
      "åħ·æľī": 1886,
      "è°¢": 1887,
      "çĥŃ": 1888,
      "ss": 1889,
      "eth": 1890,
      "old": 1891,
      "Ġperform": 1892,
      "Ġseveral": 1893,
      "é¤Ĳ": 1894,
      "Ġeach": 1895,
      "è½¬": 1896,
      "ci": 1897,
      "Ġty": 1898,
      "Ġpub": 1899,
      "æ´»åĬ¨": 1900,
      "ocus": 1901,
      "çīĮ": 1902,
      "è¶Ĭ": 1903,
      "åĽ¢": 1904,
      "è½»": 1905,
      "è¯Ńè¨Ģ": 1906,
      "Ġareas": 1907,
      "éĩĩ": 1908,
      "ft": 1909,
      "riend": 1910,
      "å·²": 1911,
      "å¸Ĥåľº": 1912,
      "ition": 1913,
      "ients": 1914,
      "ç®¡çĲĨ": 1915,
      "è®¸": 1916,
      "äººç±»": 1917,
      "èº«ä½ĵ": 1918,
      "ique": 1919,
      "Ġpartic": 1920,
      "ç»Ń": 1921,
      "agement": 1922,
      "ves": 1923,
      "ç¬¦": 1924,
      "line": 1925,
      "çº¢": 1926,
      "åĲ¸": 1927,
      "Ġpatter": 1928,
      "000": 1929,
      "ç¤¾ä¼ļ": 1930,
      "åĨħå®¹": 1931,
      "Ġorganiz": 1932,
      "ough": 1933,
      "Ġve": 1934,
      "åŃ©åŃĲ": 1935,
      "æĸ½": 1936,
      "æ¤į": 1937,
      "åĩł": 1938,
      "ä½Ĩæĺ¯": 1939,
      "Ġaff": 1940,
      "Ġnum": 1941,
      "lement": 1942,
      "èīº": 1943,
      "èĳ": 1944,
      "Ġcar": 1945,
      "ages": 1946,
      "abor": 1947,
      "æĺ¯ä¸Ģç§į": 1948,
      "Ġinst": 1949,
      "èĽ": 1950,
      "ä¹ĭä¸Ģ": 1951,
      "è·¯": 1952,
      "åį³": 1953,
      "Ġmain": 1954,
      "éļı": 1955,
      "How": 1956,
      "å¿ħ": 1957,
      "ç¨ĭåºı": 1958,
      "éŁ³ä¹Ĳ": 1959,
      "red": 1960,
      "æ²¹": 1961,
      "Ġoffer": 1962,
      "ets": 1963,
      "ç¢": 1964,
      "Ġduring": 1965,
      "çļĦäºº": 1966,
      "æĽ´å¤ļ": 1967,
      "Ġdi": 1968,
      "ä»£çłģ": 1969,
      "èİ·": 1970,
      "åħĭ": 1971,
      "Ġguid": 1972,
      "ä¸»è¦ģ": 1973,
      "Ġfam": 1974,
      "æİ§": 1975,
      "éĢļå¸¸": 1976,
      "ĠAd": 1977,
      "å¤ĦçĲĨ": 1978,
      "urn": 1979,
      "ower": 1980,
      "åĳ½": 1981,
      "æıı": 1982,
      "Ġskills": 1983,
      "Ġtool": 1984,
      "ware": 1985,
      "æĸĩæľ¬": 1986,
      "Ġpatterns": 1987,
      "çĽ®æłĩ": 1988,
      "acy": 1989,
      "æīĵ": 1990,
      "åŁİå¸Ĥ": 1991,
      "Ġevery": 1992,
      "ries": 1993,
      "è¯»": 1994,
      "éģ¿": 1995,
      "çĻ½": 1996,
      "éĢĤåĲĪ": 1997,
      "Ġpatient": 1998,
      "çľŁ": 1999,
      "oth": 2000,
      "å¥¹": 2001,
      "åĶ®": 2002,
      "ä¸Ģç§į": 2003,
      "Ġmade": 2004,
      "ä½İ": 2005,
      "ise": 2006,
      "Ġrem": 2007,
      "æ¶Ī": 2008,
      "åĲ«": 2009,
      "air": 2010,
      "Ġgener": 2011,
      "oy": 2012,
      "ç²¾": 2013,
      "æĥħåĨµ": 2014,
      "ights": 2015,
      "Ġexpl": 2016,
      "è§ģ": 2017,
      "Ġpredict": 2018,
      "ç±³": 2019,
      "æĽ´å¥½": 2020,
      "ä¿®": 2021,
      "Ġclimate": 2022,
      "Ġfocus": 2023,
      "Ġgrow": 2024,
      "å®¢æĪ·": 2025,
      "ä¸įæĸŃ": 2026,
      "itor": 2027,
      "ĠEn": 2028,
      "çº¦": 2029,
      "æĺ¯åĲ¦": 2030,
      "ä»ħ": 2031,
      "æĪĳä»¬çļĦ": 2032,
      "æľĽ": 2033,
      "op": 2034,
      "Ġmaking": 2035,
      "yth": 2036,
      "ccess": 2037,
      "Ġown": 2038,
      "ggest": 2039,
      "Ġtas": 2040,
      "uture": 2041,
      "Ġmodel": 2042,
      "put": 2043,
      "Ġresearch": 2044,
      "erest": 2045,
      "éļ¾": 2046,
      "Ġ[": 2047,
      "iel": 2048,
      "ational": 2049,
      "Ġcommunic": 2050,
      "ç¥ŀ": 2051,
      "ç©¶": 2052,
      "Ġrest": 2053,
      "æĪĲä¸º": 2054,
      "king": 2055,
      "pr": 2056,
      "åĮ»": 2057,
      "cur": 2058,
      "èĤ²": 2059,
      "Ġ'": 2060,
      "è¿Ļç§į": 2061,
      "ç¯ĩ": 2062,
      "Ġche": 2063,
      "own": 2064,
      "éĻħ": 2065,
      "Ġfin": 2066,
      "åĪ¶ä½ľ": 2067,
      "Ġsuggest": 2068,
      "å¢ŀåĬł": 2069,
      "Ġmedia": 2070,
      "ribut": 2071,
      "çļĦæĥħ": 2072,
      "åĬłåħ¥": 2073,
      "Ġcle": 2074,
      "åĳ¨": 2075,
      "ç«ł": 2076,
      "Ġthink": 2077,
      "Ġlocal": 2078,
      "pportun": 2079,
      "ĠYou": 2080,
      "Ġplan": 2081,
      "Ġeven": 2082,
      "éĽĨ": 2083,
      "å·§": 2084,
      "ax": 2085,
      "Ġchallenges": 2086,
      "Ġprof": 2087,
      "ĠCan": 2088,
      "Ġconcer": 2089,
      "Ġfuture": 2090,
      "åĬ¿": 2091,
      "Ġref": 2092,
      "èģĶ": 2093,
      "Ġself": 2094,
      "æĪĸèĢħ": 2095,
      "ble": 2096,
      "åĽ´": 2097,
      "è¿ĲåĬ¨": 2098,
      "Ġinf": 2099,
      "éĩĬ": 2100,
      "Ġsustainable": 2101,
      "Ġtext": 2102,
      "Ġgra": 2103,
      "äºĮ": 2104,
      "åĵģçīĮ": 2105,
      "ä¸įåĲĮçļĦ": 2106,
      "led": 2107,
      "çĭ¬": 2108,
      "Ġopportun": 2109,
      "Ġcontin": 2110,
      "ym": 2111,
      "Ġget": 2112,
      "å¯Ĩ": 2113,
      "éĻ¤": 2114,
      "æħ": 2115,
      "éģ¿åħį": 2116,
      "Ġ+": 2117,
      "è§ī": 2118,
      "Ġret": 2119,
      "å¸ĥ": 2120,
      "Ġinterest": 2121,
      "Ġsociety": 2122,
      "ç»ĵæŀľ": 2123,
      "åĲ¬": 2124,
      "é¦ĸåħĪ": 2125,
      "Ġbre": 2126,
      "Ġ20": 2127,
      "ĠHowever": 2128,
      "è®°": 2129,
      "ons": 2130,
      "è¿ĳ": 2131,
      "å¼Ģå§ĭ": 2132,
      "Ġbuild": 2133,
      "Ġbeh": 2134,
      "'m": 2135,
      "vers": 2136,
      "Ġgood": 2137,
      "çĲĨè§£": 2138,
      "resent": 2139,
      "ç¦»": 2140,
      "åĬŁèĥ½": 2141,
      "Ġeffort": 2142,
      "labor": 2143,
      "é»ĳ": 2144,
      "Ġbetter": 2145,
      "Ġread": 2146,
      "å¾ĭ": 2147,
      "èĽĭ": 2148,
      "hed": 2149,
      "ä¹°": 2150,
      "å¯¼èĩ´": 2151,
      "Ġimplement": 2152,
      "ç¿": 2153,
      "äº«": 2154,
      "å¤´": 2155,
      "ense": 2156,
      "Ġlong": 2157,
      "other": 2158,
      "é¥®": 2159,
      "åŃĺåľ¨": 2160,
      "çļĦæĦ": 2161,
      "ä¸Ģä»½": 2162,
      "ython": 2163,
      "ning": 2164,
      "åĩıå°ĳ": 2165,
      "åĢĻ": 2166,
      "ä¸ĵ": 2167,
      "åĲĦç§į": 2168,
      "èħ": 2169,
      "å°½": 2170,
      "åįĩ": 2171,
      "æĬ¥": 2172,
      "Ġpublic": 2173,
      "Ġlar": 2174,
      "ä½łçļĦ": 2175,
      "aut": 2176,
      "é¢ĨåŁŁ": 2177,
      "æļ": 2178,
      "ollow": 2179,
      "èģĮ": 2180,
      "Ġchang": 2181,
      "Ġbest": 2182,
      "hip": 2183,
      "åĨį": 2184,
      "akes": 2185,
      "Ġchat": 2186,
      "ited": 2187,
      "Ġpower": 2188,
      "ä¿ĿæĬ¤": 2189,
      "ä¹¦": 2190,
      "è®¡åĪĴ": 2191,
      "éĩįè¦ģçļĦ": 2192,
      "åıĺåĮĸ": 2193,
      "ilities": 2194,
      "Ġconsider": 2195,
      "æĪĳä»¬åı¯ä»¥": 2196,
      "éĤ£ä¹Ī": 2197,
      "Ġide": 2198,
      "æ¼Ķ": 2199,
      "aging": 2200,
      "Ġbased": 2201,
      "å®Ŀ": 2202,
      "Ġrange": 2203,
      "Ġresult": 2204,
      "Ġmem": 2205,
      "çħ§": 2206,
      "Ġlevel": 2207,
      "cou": 2208,
      "Ġbr": 2209,
      "Th": 2210,
      "ä¼ģ": 2211,
      "å»ºç«ĭ": 2212,
      "Ġunique": 2213,
      "è®Ń": 2214,
      "Ġmark": 2215,
      "è®¸å¤ļ": 2216,
      "è¡Įä¸º": 2217,
      "Ķç©¶": 2218,
      "çļĦæĬ": 2219,
      "Ġset": 2220,
      "éª¤": 2221,
      "ts": 2222,
      "Ġhist": 2223,
      "Ġaround": 2224,
      "Ġrev": 2225,
      "åħ¶ä¸Ń": 2226,
      "ï¼ģ": 2227,
      "æııè¿°": 2228,
      "æľĢåĲİ": 2229,
      "Ġsim": 2230,
      "nect": 2231,
      "åĽŀçŃĶ": 2232,
      "éĺ²": 2233,
      "èī¯": 2234,
      "åĪ°äºĨ": 2235,
      "ä¸ĸçķ": 2236,
      "æĸ¹æ¡Ī": 2237,
      "æĿĲæĸĻ": 2238,
      "ä¸ĸçķĮ": 2239,
      "æĽ´å¥½åľ°": 2240,
      "ä¸¤ä¸ª": 2241,
      "Ġemploy": 2242,
      "Ġtry": 2243,
      "æĵ": 2244,
      "Ġback": 2245,
      "åĪĩ": 2246,
      "Ġsuccess": 2247,
      "Ġdecisions": 2248,
      "Ġthose": 2249,
      "å¯Į": 2250,
      "Ġfact": 2251,
      "æİ¢": 2252,
      "è¶£": 2253,
      "Ġpractices": 2254,
      "åĲĹ": 2255,
      "æīį": 2256,
      "çİ©": 2257,
      "ption": 2258,
      "æĸĩç«ł": 2259,
      "Ġfeat": 2260,
      "Ġprevent": 2261,
      "Ġwriting": 2262,
      "çļĦæĢ": 2263,
      "Ġno": 2264,
      "ä»ĭ": 2265,
      "éĹ¨": 2266,
      "Ġdel": 2267,
      "æĴ": 2268,
      "Ġoptim": 2269,
      "ination": 2270,
      "ĠĊ": 2271,
      "usion": 2272,
      "Ġaccount": 2273,
      "ling": 2274,
      "Ġdivers": 2275,
      ".\"": 2276,
      "ath": 2277,
      "èĭ±": 2278,
      "ä¼ģä¸ļ": 2279,
      "Ġgrou": 2280,
      "åľ°çĲĥ": 2281,
      "å¤±": 2282,
      "Ġpersonalized": 2283,
      "ĠHe": 2284,
      "è¡¨è¾¾": 2285,
      "curity": 2286,
      "Ġfollow": 2287,
      "äº§çĶŁ": 2288,
      "Ġear": 2289,
      "åİĭ": 2290,
      "vern": 2291,
      "Ġissues": 2292,
      "åĿĩ": 2293,
      "é²": 2294,
      "Ġdr": 2295,
      "iving": 2296,
      "Ġtraining": 2297,
      "Ġrisk": 2298,
      "åĩ½": 2299,
      "åı²": 2300,
      "æĳ": 2301,
      "çļĦæĹ¶": 2302,
      "ogn": 2303,
      "Ġrequire": 2304,
      "Ġenvironmental": 2305,
      "back": 2306,
      "éĶ®": 2307,
      "çĸĹ": 2308,
      "Ġinteract": 2309,
      "åĽ¢éĺŁ": 2310,
      "æ¯ıä¸ª": 2311,
      "çĦ¶åĲİ": 2312,
      "Ġdist": 2313,
      "çĶ¨äºİ": 2314,
      "è®¤ä¸º": 2315,
      "åĩ½æķ°": 2316,
      "Ġsent": 2317,
      "ĊĠĠĠĠĠĠĠĠ": 2318,
      "Ġreducing": 2319,
      "å¹²": 2320,
      "Ġrep": 2321,
      "Ġcaus": 2322,
      "Ġmusic": 2323,
      "çª": 2324,
      "Ġmonitor": 2325,
      "Ġform": 2326,
      "é¢ľ": 2327,
      "çĹħ": 2328,
      "é¦Ļ": 2329,
      "Ġoften": 2330,
      "åı¯èĥ½ä¼ļ": 2331,
      "åĳĺå·¥": 2332,
      "Ġhand": 2333,
      "æĬķ": 2334,
      "Ġneeds": 2335,
      "æŃ¤å¤ĸ": 2336,
      "åıĭ": 2337,
      "ivity": 2338,
      "Ġactivities": 2339,
      "åĸľæ¬¢": 2340,
      "Ġpur": 2341,
      "ian": 2342,
      "self": 2343,
      "åĬ¨çī©": 2344,
      "comes": 2345,
      "å©": 2346,
      "Ġpriv": 2347,
      "az": 2348,
      "Ġrelations": 2349,
      "Ġmachine": 2350,
      "çļĦæ°": 2351,
      "ä»·æł¼": 2352,
      "ä»·åĢ¼": 2353,
      "ç´¢": 2354,
      "Ġfeed": 2355,
      "ä¸Ģä¸ĭ": 2356,
      "Ġteam": 2357,
      "Ġindustry": 2358,
      "è´¢": 2359,
      "ĠPro": 2360,
      "Ġwant": 2361,
      "ç§°": 2362,
      "Ġclass": 2363,
      "Ġlove": 2364,
      "åħ³äºİ": 2365,
      "è¾ĵåħ¥": 2366,
      "Ġtransport": 2367,
      "Ġcomplex": 2368,
      "Ġyear": 2369,
      "éĶĢåĶ®": 2370,
      "å¯»": 2371,
      "ience": 2372,
      "ists": 2373,
      "æĶ¯æĮģ": 2374,
      "Ġmind": 2375,
      "Ġfun": 2376,
      "Ġchar": 2377,
      "æĮī": 2378,
      "Ġconcerns": 2379,
      "conom": 2380,
      "ç®Ģåįķ": 2381,
      "ä»¥ä¸ĭæĺ¯": 2382,
      "Ġstart": 2383,
      "å¹¶ä¸Ķ": 2384,
      "avi": 2385,
      "ä¸ŃåĽ½": 2386,
      "åħĥç´ł": 2387,
      "Ġconf": 2388,
      "Ġpositive": 2389,
      "Ġcur": 2390,
      "Ġcount": 2391,
      "ery": 2392,
      "å¡": 2393,
      "å®¤": 2394,
      "Ġcost": 2395,
      "Ġequ": 2396,
      "Ġpolic": 2397,
      "aste": 2398,
      "aw": 2399,
      "éħĴ": 2400,
      "coura": 2401,
      "iven": 2402,
      "place": 2403,
      "chie": 2404,
      "çļĦæķ°": 2405,
      "åĽłç´ł": 2406,
      "Ġfl": 2407,
      "ism": 2408,
      "Ġmedical": 2409,
      "Ġhumans": 2410,
      "Ġautom": 2411,
      "ertainly": 2412,
      "Ġ0": 2413,
      "Ġoffers": 2414,
      "Ġdetect": 2415,
      "Ġ6": 2416,
      "é£İæł¼": 2417,
      "Ġshow": 2418,
      "çģ«": 2419,
      "Ġanim": 2420,
      "é¢ľèī²": 2421,
      "lease": 2422,
      "ave": 2423,
      "åĵª": 2424,
      "ĠThere": 2425,
      "ä»¥ä¸Ĭ": 2426,
      "æľªæĿ¥": 2427,
      "XX": 2428,
      "çīĩ": 2429,
      "uch": 2430,
      "Ġtasks": 2431,
      "åħ·ä½ĵ": 2432,
      "æ¤įçī©": 2433,
      "Ġmin": 2434,
      "èīºæľ¯": 2435,
      "icult": 2436,
      "Ġexperiences": 2437,
      "æİ§åĪ¶": 2438,
      "be": 2439,
      "Ġpatients": 2440,
      "å²": 2441,
      "ĠWe": 2442,
      "Ġrecogn": 2443,
      "çĥ¤": 2444,
      "Ġsmall": 2445,
      "åĿĹ": 2446,
      "åĦ": 2447,
      "å¤ªéĺ³": 2448,
      "ction": 2449,
      "Ġent": 2450,
      "æį¢": 2451,
      "Ġbefore": 2452,
      "Ġbecome": 2453,
      "å·²ç»ı": 2454,
      "è¡¨çİ°": 2455,
      "Ġexplo": 2456,
      "Ġachie": 2457,
      "ä»»åĬ¡": 2458,
      "å¤§çļĦ": 2459,
      "Ġday": 2460,
      "Ġfound": 2461,
      "å±±": 2462,
      "ond": 2463,
      "Ġtreatment": 2464,
      "pend": 2465,
      "hen": 2466,
      "Ġcondit": 2467,
      "ç¡®å®ļ": 2468,
      "Ġbusinesses": 2469,
      "ĠWh": 2470,
      "æīĢæľī": 2471,
      "Ġdeveloped": 2472,
      "ç»Ī": 2473,
      "æŃ¥éª¤": 2474,
      "Ġdifficult": 2475,
      "åı·": 2476,
      "ĠRe": 2477,
      "éĶĻ": 2478,
      "Ġcho": 2479,
      "Ġquest": 2480,
      "Ġtranspare": 2481,
      "Ġproject": 2482,
      "Ġcommunity": 2483,
      "ov": 2484,
      "å¸Ī": 2485,
      "å¼ł": 2486,
      "åĪĨç±»": 2487,
      "äººçļĦ": 2488,
      "sis": 2489,
      "çĽĬ": 2490,
      "oid": 2491,
      "ĠAn": 2492,
      "ways": 2493,
      "Ġeas": 2494,
      "Ġaffect": 2495,
      "Ġothers": 2496,
      "Ġregul": 2497,
      "æĢ§åĴĮ": 2498,
      "åĸĦ": 2499,
      "agn": 2500,
      "ä½ľä¸º": 2501,
      "åı¯ä»¥å¸®åĬ©": 2502,
      "åĦ¿": 2503,
      "Ġorganizations": 2504,
      "é¸¡": 2505,
      "åħ´": 2506,
      "Ġfriend": 2507,
      "Ġ$": 2508,
      "Ġdetail": 2509,
      "Ġtraditional": 2510,
      "Ġdesigned": 2511,
      "è´Ńä¹°": 2512,
      "ä½ĵéªĮ": 2513,
      "ç»į": 2514,
      "erm": 2515,
      "Ġconnect": 2516,
      "è¿Ļæł·": 2517,
      "Ġrecommendations": 2518,
      "Ġboth": 2519,
      "ŁéĢļ": 2520,
      "æ¯į": 2521,
      "Ġsit": 2522,
      "ä½ľçĶ¨": 2523,
      "ä»ĭç»į": 2524,
      "Ġste": 2525,
      "ĠSure": 2526,
      "åı°": 2527,
      "æĤ¨çļĦ": 2528,
      "Ġshe": 2529,
      "Ġmanagement": 2530,
      "joy": 2531,
      "è´Ł": 2532,
      "Ġpromote": 2533,
      "Ġvarious": 2534,
      "(\"": 2535,
      "por": 2536,
      "Ġsens": 2537,
      "Ġessential": 2538,
      "gether": 2539,
      "ularly": 2540,
      "äºī": 2541,
      "irst": 2542,
      "Ġop": 2543,
      "Ġspecies": 2544,
      "çİ°åľ¨": 2545,
      "cho": 2546,
      "Ġbehavi": 2547,
      "çŃĳ": 2548,
      "å¥³": 2549,
      "Ġquality": 2550,
      "Ġext": 2551,
      "è¥": 2552,
      "å®ĮæĪĲ": 2553,
      "æĢ»ä¹ĭ": 2554,
      "éĥ¨åĪĨ": 2555,
      "ä»İèĢĮ": 2556,
      "åĽ¾": 2557,
      "Ġtyp": 2558,
      "Ġstrate": 2559,
      "è¥¿": 2560,
      "Ġhere": 2561,
      "ars": 2562,
      "å¸Į": 2563,
      "çļĦæĿ": 2564,
      "å°Ŀ": 2565,
      "ee": 2566,
      "ier": 2567,
      "Ġec": 2568,
      "ically": 2569,
      "ering": 2570,
      "å¿µ": 2571,
      "ĠDe": 2572,
      "Ġneg": 2573,
      "å»ºçŃĳ": 2574,
      "Ġservices": 2575,
      "Ġable": 2576,
      "imes": 2577,
      "Ġoptions": 2578,
      "çĽ¸åħ³": 2579,
      "Ġsub": 2580,
      "Ġdecision": 2581,
      "ĠCertainly": 2582,
      "Ġåľ¨": 2583,
      "æ¢": 2584,
      "Ġservice": 2585,
      "):": 2586,
      "å¸¦æĿ¥": 2587,
      "Ġchild": 2588,
      "è§£éĩĬ": 2589,
      "irt": 2590,
      "çĨ": 2591,
      "ä¸įä»ħ": 2592,
      "æĿ¾": 2593,
      "ç§¯æŀģ": 2594,
      "ron": 2595,
      "åı¤": 2596,
      "çłĶç©¶": 2597,
      "ç²ī": 2598,
      "hor": 2599,
      "Ġprofess": 2600,
      "çļĦéĹ®é¢ĺ": 2601,
      "Ġopportunities": 2602,
      "åİĨåı²": 2603,
      "Ġdef": 2604,
      "ĠAm": 2605,
      "Ġgr": 2606,
      "aur": 2607,
      "å±Ĥ": 2608,
      "çŃĸ": 2609,
      "Ġpopular": 2610,
      "æ´ģ": 2611,
      "åıĳçİ°": 2612,
      "Ġpoem": 2613,
      "èµĽ": 2614,
      "Ġob": 2615,
      "Ġdon": 2616,
      "Ġsound": 2617,
      "Ġtransportation": 2618,
      "ious": 2619,
      "åı¦": 2620,
      "Ġrole": 2621,
      "Ġfiel": 2622,
      "ç§ĳåŃ¦": 2623,
      "èĢģ": 2624,
      "reen": 2625,
      "æľīæķĪ": 2626,
      "Ġcor": 2627,
      "Ġfeedback": 2628,
      "Ġtechnologies": 2629,
      "äº¤éĢļ": 2630,
      "Ġadapt": 2631,
      "'re": 2632,
      "ervation": 2633,
      "Ġcommunities": 2634,
      "çİ°ä»£": 2635,
      "Ġlook": 2636,
      "Ġfac": 2637,
      "çĶµå½±": 2638,
      "Ġcollect": 2639,
      "å¾ĹåĪ°": 2640,
      "hips": 2641,
      "Ġavail": 2642,
      "eren": 2643,
      "ä¸Ģèµ·": 2644,
      "çīĽ": 2645,
      "Ġposs": 2646,
      "Ġweather": 2647,
      "Ġefforts": 2648,
      "¿Ģ": 2649,
      "æĹħ": 2650,
      "oh": 2651,
      "Ġcollabor": 2652,
      "æĭ¥": 2653,
      "æĪĲåĬŁ": 2654,
      "èİ·å¾Ĺ": 2655,
      "å±ħ": 2656,
      "Ġtre": 2657,
      "Ġsources": 2658,
      "Ġstudy": 2659,
      "Ġprograms": 2660,
      "éĻĲ": 2661,
      "Ġtips": 2662,
      "Ġmarket": 2663,
      "ally": 2664,
      "å®³": 2665,
      "wards": 2666,
      "æ£Ģ": 2667,
      "ä¸Ģç¯ĩ": 2668,
      "rior": 2669,
      "Ġtop": 2670,
      "Ġend": 2671,
      "åĭ": 2672,
      "Ġlarge": 2673,
      "iciency": 2674,
      "Ġdec": 2675,
      "å®ļçļĦ": 2676,
      "icient": 2677,
      "è¿ĩç¨ĭä¸Ń": 2678,
      "lications": 2679,
      "ç¼º": 2680,
      "Ġtour": 2681,
      "Ġtogether": 2682,
      "äººå·¥": 2683,
      "Ġtools": 2684,
      "æĸ¯": 2685,
      "æ°ĳ": 2686,
      "æĬĬ": 2687,
      "ä¹ĭéĹ´çļĦ": 2688,
      "çī¹çĤ¹": 2689,
      "Ġbel": 2690,
      "ditionally": 2691,
      "åĪ©çĶ¨": 2692,
      "è¾¹": 2693,
      "éĻį": 2694,
      "ĠIf": 2695,
      "é¢Ŀ": 2696,
      "åįı": 2697,
      "å¾Ģ": 2698,
      "lish": 2699,
      "è¯ī": 2700,
      "ins": 2701,
      "å¥¶": 2702,
      "Ġeconom": 2703,
      "Ġinvest": 2704,
      "ĠDo": 2705,
      "tain": 2706,
      "åĩºçİ°": 2707,
      "çļĦå½±åĵį": 2708,
      "aterial": 2709,
      "Ġsure": 2710,
      "Ġpass": 2711,
      "çĶ»": 2712,
      "è´£": 2713,
      "ç»ĵæŀĦ": 2714,
      "æķħ": 2715,
      "æĥħæĦŁ": 2716,
      "æ¿Ģ": 2717,
      "ellig": 2718,
      "ä¼Ĺ": 2719,
      "æ¯Ķè¾ĥ": 2720,
      "tern": 2721,
      "Ġoutcomes": 2722,
      "up": 2723,
      "Ġbeaut": 2724,
      "read": 2725,
      "çĶŁæĪĲ": 2726,
      "æķ°åŃĹ": 2727,
      "Ġdem": 2728,
      "ires": 2729,
      "åı¯ä»¥éĢļè¿ĩ": 2730,
      "æĸ°çļĦ": 2731,
      "Ġdeep": 2732,
      "å¨": 2733,
      "çĭĹ": 2734,
      "åħ³æ³¨": 2735,
      "çĶŁåĳ½": 2736,
      "ä¼łç»Ł": 2737,
      "Ġstay": 2738,
      "æŃĮ": 2739,
      "åħ³éĶ®": 2740,
      "Ġplace": 2741,
      "ä¸»é¢ĺ": 2742,
      "å¾Īå¤ļ": 2743,
      "èĪĴ": 2744,
      "Ġprofessional": 2745,
      "yle": 2746,
      "æĽ²": 2747,
      "19": 2748,
      "Ġessay": 2749,
      "Ġgive": 2750,
      "ç³ĸ": 2751,
      "Ġonly": 2752,
      "æŁĲ": 2753,
      "Ġphys": 2754,
      "å¯¹è¯Ŀ": 2755,
      "Ġcontro": 2756,
      "Ġamount": 2757,
      "cept": 2758,
      "ization": 2759,
      "ç¼ĸåĨĻ": 2760,
      "åıĹåĪ°": 2761,
      "Ġalways": 2762,
      "æ¯Ķå¦Ĥ": 2763,
      "Ġprivacy": 2764,
      "au": 2765,
      "________": 2766,
      "Ġresponsible": 2767,
      "()": 2768,
      "çŃīçŃī": 2769,
      "Ġmaterial": 2770,
      "Ġonline": 2771,
      "é¼": 2772,
      "æĶ¿": 2773,
      "åĽĽ": 2774,
      "Ġenjoy": 2775,
      "åľŁ": 2776,
      "Ġsafety": 2777,
      "Ġtw": 2778,
      "Ġcommunication": 2779,
      "ä¸½": 2780,
      "æĺ¾": 2781,
      "olution": 2782,
      "erg": 2783,
      "įä½ľ": 2784,
      "Ġuser": 2785,
      "Ġemotional": 2786,
      "time": 2787,
      "é¾": 2788,
      "Ġsecurity": 2789,
      "Ġsense": 2790,
      "elines": 2791,
      "åĬ±": 2792,
      "çī©è´¨": 2793,
      "ura": 2794,
      "Ġshare": 2795,
      "Ġanalyzing": 2796,
      "ital": 2797,
      "é±": 2798,
      "irtual": 2799,
      "Ġvisit": 2800,
      "bers": 2801,
      "Ġcour": 2802,
      "Ġproble": 2803,
      "è®¾å¤ĩ": 2804,
      "atch": 2805,
      "land": 2806,
      "é±¼": 2807,
      "æĪĳä»¬éľĢè¦ģ": 2808,
      "ç¨³": 2809,
      "ibility": 2810,
      "Ġefficiency": 2811,
      "å£°": 2812,
      "èĴ": 2813,
      "æľºåĻ¨": 2814,
      "Ġclear": 2815,
      "åĪ¶å®ļ": 2816,
      "izing": 2817,
      "Ġconditions": 2818,
      "lusion": 2819,
      "Ġlow": 2820,
      "Ġlim": 2821,
      "hers": 2822,
      "Ġrisks": 2823,
      "ç¿»": 2824,
      "Ġlet": 2825,
      "åĴĸ": 2826,
      "å¿ĥçĲĨ": 2827,
      "è¿ľ": 2828,
      "print": 2829,
      "Ġchanges": 2830,
      "Ġmeas": 2831,
      "Ġimproving": 2832,
      "Ġcrit": 2833,
      "50": 2834,
      "å¸ĮæľĽ": 2835,
      "Ġaud": 2836,
      "åįĹ": 2837,
      "æĹłæ³ķ": 2838,
      "Ġnegative": 2839,
      "é¡¹çĽ®": 2840,
      "und": 2841,
      "ats": 2842,
      "Ġcompanies": 2843,
      "æī¾åĪ°": 2844,
      "Ġcontribut": 2845,
      "æŃ£ç¡®": 2846,
      "é»Ħ": 2847,
      "å±ŀ": 2848,
      "Ġunderstanding": 2849,
      "Ġmult": 2850,
      "Ġclo": 2851,
      "å¾ģ": 2852,
      "Ġprior": 2853,
      "rim": 2854,
      "äººå·¥æĻºèĥ½": 2855,
      "Ġvariety": 2856,
      "Ġtaking": 2857,
      "åĤ": 2858,
      "aster": 2859,
      "ody": 2860,
      "Ġ{": 2861,
      "çļĦéĩįè¦ģ": 2862,
      "Ġfore": 2863,
      "èµĦæºĲ": 2864,
      "è¦ģæ±Ĥ": 2865,
      "Ġfeatures": 2866,
      "èįī": 2867,
      "me": 2868,
      "èĮĥ": 2869,
      "Ġoper": 2870,
      "çº§": 2871,
      "é²ľ": 2872,
      "æĬĢå·§": 2873,
      "ĳæĪĺ": 2874,
      "ç±»åŀĭ": 2875,
      "æĿ¿": 2876,
      "è½¯": 2877,
      "ew": 2878,
      "Ġrestaur": 2879,
      "Ġwithout": 2880,
      "ructure": 2881,
      "çļĦæĺ¯": 2882,
      "çı": 2883,
      "Ġlist": 2884,
      "urate": 2885,
      "Ġbook": 2886,
      "äº²": 2887,
      "åºĹ": 2888,
      "ä¹Łæĺ¯": 2889,
      "ä»»ä½ķ": 2890,
      "Ġcam": 2891,
      "ĠBe": 2892,
      "Ġgovern": 2893,
      "Ġbehavior": 2894,
      "è®Ńç»ĥ": 2895,
      "Ġfamily": 2896,
      "æĿĤ": 2897,
      "Ġcity": 2898,
      "Ġapproach": 2899,
      "Ġaccurate": 2900,
      "Ġsom": 2901,
      "Ġel": 2902,
      "èĪŀ": 2903,
      "èŀ": 2904,
      "åŁºæľ¬": 2905,
      "Ġdise": 2906,
      "Ġencoura": 2907,
      "ĠWhat": 2908,
      "åĥ": 2909,
      "è¯¦": 2910,
      "¦Ĥ": 2911,
      "å·¥åħ·": 2912,
      "åķ¡": 2913,
      "Ġstill": 2914,
      "chool": 2915,
      "æĦŁåĪ°": 2916,
      "çĶŁçī©": 2917,
      "åĴĸåķ¡": 2918,
      "åĩĨå¤ĩ": 2919,
      "Ġwaste": 2920,
      "Ġevents": 2921,
      "æķĻèĤ²": 2922,
      "Ġ8": 2923,
      "Ġmust": 2924,
      "ied": 2925,
      "asing": 2926,
      "å½¢æĪĲ": 2927,
      "Ġproducts": 2928,
      "åħ¸": 2929,
      "è®²": 2930,
      "fter": 2931,
      "å·®": 2932,
      "less": 2933,
      "Ġcro": 2934,
      "Ġfinan": 2935,
      "åıįåºĶ": 2936,
      "åĪĽéĢł": 2937,
      "Ġguidelines": 2938,
      "åĪ¤": 2939,
      "ä½ľåĵģ": 2940,
      "è¡¨ç¤º": 2941,
      "å¼Ĥ": 2942,
      "Ġknown": 2943,
      "Ġtest": 2944,
      "è¯¯": 2945,
      "ope": 2946,
      "Ġusers": 2947,
      "AI": 2948,
      "å¾·": 2949,
      "new": 2950,
      "è¿½": 2951,
      "iques": 2952,
      "æ¨¡åŀĭ": 2953,
      "åĬĽåĴĮ": 2954,
      "Ġhistory": 2955,
      "ĠAl": 2956,
      "æĬķèµĦ": 2957,
      "å°Ŀè¯ķ": 2958,
      "ank": 2959,
      "Ġhome": 2960,
      "éĴŁ": 2961,
      "ä¸°": 2962,
      "èĪĴéĢĤ": 2963,
      "Ġincrease": 2964,
      "Ġhab": 2965,
      "åĪ»": 2966,
      "è¾ĵåĩº": 2967,
      "Ġleading": 2968,
      "Ġ7": 2969,
      "é£İéĻ©": 2970,
      "Ġperformance": 2971,
      "Ġhapp": 2972,
      "åŃ£": 2973,
      "Ġstand": 2974,
      "ty": 2975,
      "ç¦ı": 2976,
      "Ġcustomers": 2977,
      "åįİ": 2978,
      "Ġbelie": 2979,
      "Ġcompany": 2980,
      "å½ķ": 2981,
      "é£Łçī©": 2982,
      "ĠUn": 2983,
      "Ġsumm": 2984,
      "rent": 2985,
      "ĠCon": 2986,
      "éĢĤéĩı": 2987,
      "anced": 2988,
      "Ġi": 2989,
      "Ġlight": 2990,
      "Ġanalysis": 2991,
      "å°Ĭ": 2992,
      "ĠUse": 2993,
      "ouse": 2994,
      "ted": 2995,
      "Ġcharact": 2996,
      "Ġ#": 2997,
      "to": 2998,
      "ç»ľ": 2999,
      "ä¸įæĺ¯": 3000,
      "Ġdeveloping": 3001,
      "åŁ¹": 3002,
      "Ġstrategies": 3003,
      "Ġmight": 3004,
      "çŁŃ": 3005,
      "çļĦæİ": 3006,
      "Ġfirst": 3007,
      "èĥĮ": 3008,
      "çĮ«": 3009,
      "Ġincludes": 3010,
      "åĽŃ": 3011,
      "Ġdiagn": 3012,
      "Ġgrowth": 3013,
      "ä¸ĵä¸ļ": 3014,
      "Ġdoes": 3015,
      "12": 3016,
      "ç»¿": 3017,
      "Ġkeep": 3018,
      "è¯¦ç»Ĩ": 3019,
      "åĥı": 3020,
      "åıĳçĶŁ": 3021,
      "fact": 3022,
      "åı¯ä»¥åľ¨": 3023,
      "ç«Ļ": 3024,
      "æĭī": 3025,
      "æµİ": 3026,
      "Ġchatbots": 3027,
      "Ġbreak": 3028,
      "è¡¡": 3029,
      "çŁ³": 3030,
      "æĮģç»Ń": 3031,
      "life": 3032,
      "Ġ10": 3033,
      "æ´Ĺ": 3034,
      "ĠAdditionally": 3035,
      "å£«": 3036,
      "ember": 3037,
      "Ġgoals": 3038,
      "å¾®": 3039,
      "Ġview": 3040,
      "Â·": 3041,
      "ove": 3042,
      "åŁºç¡": 3043,
      "Ġoptimize": 3044,
      "Ġtem": 3045,
      "Ġdown": 3046,
      "åŁºç¡Ģ": 3047,
      "è¶ħ": 3048,
      "ercis": 3049,
      "Ġless": 3050,
      "ees": 3051,
      "æĿĥ": 3052,
      "Ġkey": 3053,
      "Ġworks": 3054,
      "è®¨": 3055,
      "åı¥åŃĲ": 3056,
      "Ġrobot": 3057,
      "uss": 3058,
      "åħ¨çĲĥ": 3059,
      "ç»ıæµİ": 3060,
      "æīįèĥ½": 3061,
      "egr": 3062,
      "ä»ĸä»¬çļĦ": 3063,
      "äºĶ": 3064,
      "èµ·æĿ¥": 3065,
      "çĵ": 3066,
      "Ġfactors": 3067,
      "Ġcultural": 3068,
      "æľ¨": 3069,
      "Ġworking": 3070,
      "ä¼¼": 3071,
      "èĲ½": 3072,
      "éĢŁåº¦": 3073,
      "ä½ı": 3074,
      "Ġeffects": 3075,
      "å©ļ": 3076,
      "br": 3077,
      "åİħ": 3078,
      "rain": 3079,
      "\")": 3080,
      "åŃ¦çĶŁ": 3081,
      "\",": 3082,
      "Ġpar": 3083,
      "atform": 3084,
      "Ġensuring": 3085,
      "çĶ±äºİ": 3086,
      "Ġmuch": 3087,
      "Ġwords": 3088,
      "Ġmar": 3089,
      "ç»ıéªĮ": 3090,
      "ä¸ºäºĨ": 3091,
      "åĲĪä½ľ": 3092,
      "ven": 3093,
      "Ġ/": 3094,
      "Ġfinancial": 3095,
      "work": 3096,
      "ories": 3097,
      "æ²»": 3098,
      "Ġtechniques": 3099,
      "æĭ¥æľī": 3100,
      "rap": 3101,
      "å°Ķ": 3102,
      "Ġest": 3103,
      "Ġavailable": 3104,
      "Ġlit": 3105,
      "æ¹": 3106,
      "Ġefficient": 3107,
      "els": 3108,
      "over": 3109,
      "Ġland": 3110,
      "Ġarea": 3111,
      "Ġintellig": 3112,
      "Ġpref": 3113,
      "ature": 3114,
      "çŁ¥è¯Ĩ": 3115,
      "æĵįä½ľ": 3116,
      "å¾ħ": 3117,
      "igate": 3118,
      "çļĦæĶ": 3119,
      "Ġmean": 3120,
      "bo": 3121,
      "Ġcontrol": 3122,
      "éĩĩçĶ¨": 3123,
      "ricult": 3124,
      "Ġprogramm": 3125,
      "Ġtowards": 3126,
      "thing": 3127,
      "ä¸įè¦ģ": 3128,
      "Ġthough": 3129,
      "å½©": 3130,
      "Ġcertain": 3131,
      "Ġwild": 3132,
      "ä»Ĭ": 3133,
      "Ġconservation": 3134,
      "çŁ¥éģĵ": 3135,
      "Ġreally": 3136,
      "çļĦåľ°": 3137,
      "io": 3138,
      "é¥°": 3139,
      "Ġful": 3140,
      "çİ¯ä¿Ŀ": 3141,
      "Ġexplore": 3142,
      "çļĦæ¸": 3143,
      "Ġdiverse": 3144,
      "åĬłå¼º": 3145,
      "çļ®": 3146,
      "Ġemotions": 3147,
      "Ġavoid": 3148,
      "'ll": 3149,
      "çļĦæī": 3150,
      "åį¡": 3151,
      "Ġplatform": 3152,
      "ances": 3153,
      "Ġsitu": 3154,
      "ä»ĺ": 3155,
      "ä½įç½®": 3156,
      "oring": 3157,
      "çĽĲ": 3158,
      "ä¸ĩ": 3159,
      "Ġdev": 3160,
      "nov": 3161,
      "ash": 3162,
      "Ġtwo": 3163,
      "å®ł": 3164,
      "bon": 3165,
      "èµ°": 3166,
      "åĪĹè¡¨": 3167,
      "Ġcy": 3168,
      "èįĲ": 3169,
      "ĠSome": 3170,
      "Ġexplain": 3171,
      "Ġaware": 3172,
      "ç¤¾äº¤": 3173,
      "day": 3174,
      "åıĮ": 3175,
      "æ²ŁéĢļ": 3176,
      "æ°§": 3177,
      "å¼Ģåıĳ": 3178,
      "åħ¬åı¸çļĦ": 3179,
      "Ġair": 3180,
      "åĩ»": 3181,
      "aring": 3182,
      "éĥ½æĺ¯": 3183,
      "Ġlevels": 3184,
      "ods": 3185,
      "Ġsteps": 3186,
      "Ġcap": 3187,
      "æ´ŀ": 3188,
      "é©¬": 3189,
      "Ġreturn": 3190,
      "Ġmet": 3191,
      "çĶŁæĢģ": 3192,
      "ä¸°å¯Į": 3193,
      "æŁĵ": 3194,
      "æīĢä»¥": 3195,
      "é¡»": 3196,
      "Ġer": 3197,
      "Ġfra": 3198,
      "30": 3199,
      "èĵ": 3200,
      "âĢĶ": 3201,
      "Ġå½ĵ": 3202,
      "ah": 3203,
      "ä¿ĥ": 3204,
      "Ġlikely": 3205,
      "ĠĠĠĠĠĠĠĠĠĠĠĠĠĠĠĠ": 3206,
      "åĪĿ": 3207,
      "Ġcreating": 3208,
      "Ġfarm": 3209,
      "Ġbal": 3210,
      "Ġlives": 3211,
      "å®ĥçļĦ": 3212,
      "Ġability": 3213,
      "ä¸ĬçļĦ": 3214,
      "Ġsentence": 3215,
      "åĤ¨": 3216,
      "Ġrout": 3217,
      "Ġprovides": 3218,
      "Ġagain": 3219,
      "å®łçī©": 3220,
      "éĢĲ": 3221,
      "Ġyears": 3222,
      "èŀį": 3223,
      "Ġphysical": 3224,
      "Python": 3225,
      "ĠEx": 3226,
      "iting": 3227,
      "è°ĥæķ´": 3228,
      "ç½ĳç»ľ": 3229,
      "æħ¢": 3230,
      "ç©ºéĹ´": 3231,
      "åĽ°": 3232,
      "è±Ĩ": 3233,
      "æĽ´å¤ļçļĦ": 3234,
      "ĠAr": 3235,
      "Ġmaintain": 3236,
      "å®ŀéĻħ": 3237,
      "Ġtravel": 3238,
      "Ġsat": 3239,
      "pro": 3240,
      "çĶµåŃĲ": 3241,
      "æ±½": 3242,
      "ex": 3243,
      "åģĩ": 3244,
      "æĲŃ": 3245,
      "éļıçĿĢ": 3246,
      "è¿ĺæľī": 3247,
      "ç¤¼": 3248,
      "ale": 3249,
      "Ġconsum": 3250,
      "ĊĠ": 3251,
      "ncy": 3252,
      "Ġquestions": 3253,
      "fort": 3254,
      "making": 3255,
      "Ġdesc": 3256,
      "15": 3257,
      "Ġinvolves": 3258,
      "Ġstress": 3259,
      "åŃĹç¬¦": 3260,
      "here": 3261,
      "Ġimpacts": 3262,
      "Ġexercis": 3263,
      "åĿļ": 3264,
      "ledge": 3265,
      "ç§ĳæĬĢ": 3266,
      "oci": 3267,
      "Ġeffectively": 3268,
      "æ¶Īè´¹": 3269,
      "Ġconclusion": 3270,
      "éĺħ": 3271,
      "Ġstre": 3272,
      "issions": 3273,
      "æ·»": 3274,
      "It": 3275,
      "éĿĻ": 3276,
      "Ġvirtual": 3277,
      "è¡£": 3278,
      "Ġachieve": 3279,
      "ource": 3280,
      "è¿ŀ": 3281,
      "acks": 3282,
      "è¡¨æł¼": 3283,
      "Ġimportance": 3284,
      "èĩªæĪĳ": 3285,
      "These": 3286,
      "num": 3287,
      "çļĦæł": 3288,
      "Ġrelationships": 3289,
      "Ġworkers": 3290,
      "gical": 3291,
      "orpor": 3292,
      "erson": 3293,
      "åĳ¢": 3294,
      "nds": 3295,
      "æİ¨èįĲ": 3296,
      "ohn": 3297,
      "å¿ħé¡»": 3298,
      "å®¹æĺĵ": 3299,
      "ĠGo": 3300,
      "Ġtell": 3301,
      "ĠRes": 3302,
      "onom": 3303,
      "Ġbec": 3304,
      "æ³Ľ": 3305,
      "pos": 3306,
      "Ġmove": 3307,
      "Ġstory": 3308,
      "æŃ¢": 3309,
      "Ġpriorit": 3310,
      "Ġindustries": 3311,
      "èľ": 3312,
      "Ġpossible": 3313,
      "ĠMan": 3314,
      "Ġexpress": 3315,
      "abilities": 3316,
      "Ġintegr": 3317,
      "ä»£è¡¨": 3318,
      "Ġrespond": 3319,
      "åĪĨéĴŁ": 3320,
      "æľºä¼ļ": 3321,
      "Ġthings": 3322,
      "äº¤æµģ": 3323,
      "Ġmeth": 3324,
      "urther": 3325,
      "Ġwide": 3326,
      "èĳĹ": 3327,
      "æĪĳçļĦ": 3328,
      "ĸçķ¥": 3329,
      "ides": 3330,
      "ething": 3331,
      "ĠWhile": 3332,
      "pan": 3333,
      "çŃĸçķ¥": 3334,
      "Ġcent": 3335,
      "Ġplease": 3336,
      "ology": 3337,
      "uracy": 3338,
      "å¾ª": 3339,
      "ward": 3340,
      "nce": 3341,
      "Ġthen": 3342,
      "çªģ": 3343,
      "å¥ĩ": 3344,
      "Ġblo": 3345,
      "ai": 3346,
      "æŀĹ": 3347,
      "ç®Ĺæ³ķ": 3348,
      "ç»¼": 3349,
      "Ġprint": 3350,
      "aces": 3351,
      "lu": 3352,
      "ªæĸ½": 3353,
      "pre": 3354,
      "çļĦæĦı": 3355,
      "Ġsol": 3356,
      "Ġoverall": 3357,
      "hold": 3358,
      "Ġes": 3359,
      "çļĦä¸Ģ": 3360,
      "éģĩ": 3361,
      "Ġpopul": 3362,
      "å°ıè¯´": 3363,
      "æ³¢": 3364,
      "åįģ": 3365,
      "ä¹Łåı¯ä»¥": 3366,
      "é£Łåĵģ": 3367,
      "Ġcontent": 3368,
      "å°Ħ": 3369,
      "Ġrequires": 3370,
      "æ£ĢæŁ¥": 3371,
      "ĊĠĠĠĠĠĠĠĠĠĠĠ": 3372,
      "Ġgroups": 3373,
      "Ġfair": 3374,
      "Ġbl": 3375,
      "å®ŀéªĮ": 3376,
      "æĮīçħ§": 3377,
      "osp": 3378,
      "str": 3379,
      "ä¸įèĥ½": 3380,
      "Ġharm": 3381,
      "Ġprodu": 3382,
      "çļĦæĬĢ": 3383,
      "çĩ": 3384,
      "tle": 3385,
      "Ġanimals": 3386,
      "è§Ĵèī²": 3387,
      "lev": 3388,
      "æ¸Ĳ": 3389,
      "å¤įæĿĤ": 3390,
      "Ġdepend": 3391,
      "æĮĳæĪĺ": 3392,
      "åĮħåĲ«": 3393,
      "Ġhelps": 3394,
      "Ġopen": 3395,
      "Ġnet": 3396,
      "ĠĠĠĠĠ": 3397,
      "Ġstrong": 3398,
      "Ġjour": 3399,
      "å¹¿æ³Ľ": 3400,
      "æķ´ä¸ª": 3401,
      "Ġelect": 3402,
      "Ġresponse": 3403,
      "åįķè¯į": 3404,
      "æľĭ": 3405,
      "Ġ<": 3406,
      "åĮĸåŃ¦": 3407,
      "éĴĪ": 3408,
      "Ġquick": 3409,
      "ually": 3410,
      "Ġsomething": 3411,
      "Ġtrack": 3412,
      "åº¦åĴĮ": 3413,
      "erences": 3414,
      "æłĳ": 3415,
      "Ġaccuracy": 3416,
      "Ġexc": 3417,
      "é£ŀ": 3418,
      "Ġfield": 3419,
      "å¯»æī¾": 3420,
      "éħ¸": 3421,
      "Ġhope": 3422,
      "çĳ": 3423,
      "Ġinnov": 3424,
      "ç»ª": 3425,
      "alk": 3426,
      "Ġtypes": 3427,
      "Ġdid": 3428,
      "åĬª": 3429,
      "Ġcall": 3430,
      "è¯Ĺ": 3431,
      "Ġearly": 3432,
      "ĠOne": 3433,
      "app": 3434,
      "Ġcommon": 3435,
      "æľĢç»Ī": 3436,
      "Ġcheck": 3437,
      "Ġsym": 3438,
      "çĤĴ": 3439,
      "æĬĢèĥ½": 3440,
      "Ġenh": 3441,
      "Ġagricult": 3442,
      "Ġimm": 3443,
      "ç»ĩ": 3444,
      "æ»¡è¶³": 3445,
      "Ġschool": 3446,
      "bal": 3447,
      "Ġfollowing": 3448,
      "based": 3449,
      "Ġwebs": 3450,
      "Ġculture": 3451,
      "ĠCom": 3452,
      "way": 3453,
      "ä¸Ģå®ļ": 3454,
      "åķĨåĵģ": 3455,
      "ude": 3456,
      "çļĦåıĳå±ķ": 3457,
      "çĶŁäº§": 3458,
      "osystem": 3459,
      "Ġplant": 3460,
      "åı¶": 3461,
      "åĲĥ": 3462,
      "ä»ĸçļĦ": 3463,
      "der": 3464,
      "è¯¢": 3465,
      "å®¶åħ·": 3466,
      "Ġfree": 3467,
      "ç§»": 3468,
      "æİĮ": 3469,
      "Ġbody": 3470,
      "Ġpresent": 3471,
      "Ġparticularly": 3472,
      "Ġchildren": 3473,
      "Ġstudent": 3474,
      ").": 3475,
      "çī¹å¾ģ": 3476,
      "èĶ": 3477,
      "éĺħè¯»": 3478,
      "æķĪçİĩ": 3479,
      "Ġprogram": 3480,
      "éħ±": 3481,
      "åıĺå¾Ĺ": 3482,
      "ix": 3483,
      "Ġcome": 3484,
      "çļĦæ²": 3485,
      "ĠTe": 3486,
      "ĠTo": 3487,
      "åħ±åĲĮ": 3488,
      "Ġemployees": 3489,
      "è¯´æĺİ": 3490,
      "Ġheart": 3491,
      "Ġmot": 3492,
      "æľĭåıĭ": 3493,
      "eric": 3494,
      "è¯ĳ": 3495,
      "Ġcurrent": 3496,
      "æĪĲæľ¬": 3497,
      "Ġtoo": 3498,
      "çİ©å®¶": 3499,
      "åĪĽæĸ°": 3500,
      "Ġecosystem": 3501,
      "å¸¸è§ģ": 3502,
      "ä¸ĢæŃ¥": 3503,
      "Ġpres": 3504,
      "Ġmulti": 3505,
      "åĳĬè¯ī": 3506,
      "ä¸¥": 3507,
      "Ġmit": 3508,
      "Ġaction": 3509,
      "çĨŁ": 3510,
      "Ġhabit": 3511,
      "åı£æĦŁ": 3512,
      "ç®±": 3513,
      "Ġuses": 3514,
      "å¢ŀå¼º": 3515,
      "ç»Ļåĩº": 3516,
      "Ġ9": 3517,
      "Ġdep": 3518,
      "Ġeconomic": 3519,
      "æĢ§çļĦ": 3520,
      "18": 3521,
      "åĨ°": 3522,
      "Ġhelped": 3523,
      "åĲ¸å¼ķ": 3524,
      "çİĭ": 3525,
      "Ġdiagnos": 3526,
      "åł": 3527,
      "èģĶç³»": 3528,
      "ç¾¤": 3529,
      "ç»ĥä¹ł": 3530,
      "æĪĲéķ¿": 3531,
      "Ġpoint": 3532,
      "å®ļæľŁ": 3533,
      "åĳ¼": 3534,
      "èį¯": 3535,
      "æĿ¯": 3536,
      "æ¤Ĵ": 3537,
      "æķĪæŀľ": 3538,
      "Ġspecial": 3539,
      "æ··": 3540,
      "åĩłä¸ª": 3541,
      "ause": 3542,
      "éĨ": 3543,
      "æ¯ĶèµĽ": 3544,
      "è·Ŀ": 3545,
      "What": 3546,
      "Ġtimes": 3547,
      "icles": 3548,
      "Ġ*": 3549,
      "ç´§": 3550,
      "å¦Ĥæŀľä½ł": 3551,
      "çĭ¬çī¹": 3552,
      "çģµ": 3553,
      "ç¨İ": 3554,
      "Ġcarbon": 3555,
      "Ġbias": 3556,
      "åĬ©äºİ": 3557,
      "Ġconst": 3558,
      "èĩªçĶ±": 3559,
      "æĿ¥è¯´": 3560,
      "å°±æĺ¯": 3561,
      "åį°": 3562,
      "Ġmeet": 3563,
      "è§ĦåĪĴ": 3564,
      "çļĦç¾": 3565,
      "èĲ¥åħ»": 3566,
      "ators": 3567,
      "ç¨³å®ļ": 3568,
      "ode": 3569,
      "çħ®": 3570,
      "Ġassoci": 3571,
      "å¿Ĺ": 3572,
      "è¡ĮæĺŁ": 3573,
      "æĿİ": 3574,
      "Ġreview": 3575,
      "åĩĢ": 3576,
      "ĠRo": 3577,
      "Ġknowledge": 3578,
      "ä»¥ä¾¿": 3579,
      "æµĭè¯ķ": 3580,
      "åĲĪéĢĤ": 3581,
      "sc": 3582,
      "å½¢å¼ı": 3583,
      "Ġfriends": 3584,
      "Ġnature": 3585,
      "Ġcritical": 3586,
      "æ´ĭ": 3587,
      "Ġafter": 3588,
      "erve": 3589,
      "Ġrece": 3590,
      "çļĦæŃ": 3591,
      "æ±½è½¦": 3592,
      "çķĮ": 3593,
      "Ġloss": 3594,
      "Ġapplications": 3595,
      "å¤ļç§į": 3596,
      "éĶħ": 3597,
      "ä¸²": 3598,
      "Ġinsp": 3599,
      "---": 3600,
      "ĠSh": 3601,
      "Ġvol": 3602,
      "lut": 3603,
      "oks": 3604,
      "sequ": 3605,
      "Ġbir": 3606,
      "åĲĪçĲĨ": 3607,
      "Ġnecess": 3608,
      "æĪĳæĥ³": 3609,
      "çŃīæĸ¹éĿ¢": 3610,
      "é¼ĵ": 3611,
      "Ġsoft": 3612,
      "Ġlive": 3613,
      "å°ıæĺİ": 3614,
      "ĠInd": 3615,
      "Ġbring": 3616,
      "æĺ¯æĮĩ": 3617,
      "Ġsoil": 3618,
      "ilar": 3619,
      "ä¸ľ": 3620,
      "æĿ¡ä»¶": 3621,
      "Ġtri": 3622,
      "äº®": 3623,
      "Ġmom": 3624,
      "æı¡": 3625,
      "ä¼°": 3626,
      "ŀäºī": 3627,
      "çĽĳ": 3628,
      "èĤ¤": 3629,
      "è´¢åĬ¡": 3630,
      "æ·»åĬł": 3631,
      "é¥®é£Ł": 3632,
      "Ġallowing": 3633,
      "åºķ": 3634,
      "Ġright": 3635,
      "Ġexpert": 3636,
      "Ġsupp": 3637,
      "Ġinit": 3638,
      "çļĦæµ": 3639,
      "arget": 3640,
      "Ġexpect": 3641,
      "Ġ19": 3642,
      "Ġmeasures": 3643,
      "olutions": 3644,
      "just": 3645,
      "arc": 3646,
      "å°ļ": 3647,
      "Ġpractice": 3648,
      "æľīåĬ©äºİ": 3649,
      "å¤§éĩı": 3650,
      "',": 3651,
      "iment": 3652,
      "Ġcontinue": 3653,
      "Ġdiscuss": 3654,
      "100": 3655,
      "éļľ": 3656,
      "çļĦæĦŁ": 3657,
      "Ġreflect": 3658,
      "itation": 3659,
      "åį«": 3660,
      "äºĨä¸Ģ": 3661,
      "ney": 3662,
      "ĠLe": 3663,
      "ised": 3664,
      "è¶ĭ": 3665,
      "äºĨä¸Ģä¸ª": 3666,
      "Ġincreasing": 3667,
      "çļĦæĮ": 3668,
      "Ġstru": 3669,
      "æĢ»ç»ĵ": 3670,
      "ely": 3671,
      "å®ĩ": 3672,
      "Ġauthor": 3673,
      "è¡¨éĿ¢": 3674,
      "Ġx": 3675,
      "æķħäºĭ": 3676,
      "emic": 3677,
      "Ġrepresent": 3678,
      "ger": 3679,
      "Ġincreased": 3680,
      "ones": 3681,
      "ains": 3682,
      "Ġtrained": 3683,
      "Ġfish": 3684,
      "Ġstate": 3685,
      "åĨ·": 3686,
      "çĶŁéķ¿": 3687,
      "Ġrenew": 3688,
      "ording": 3689,
      "åĮĹ": 3690,
      "æİªæĸ½": 3691,
      "å¹³è¡¡": 3692,
      "Ġsuccessful": 3693,
      "ä¸ĭéĿ¢": 3694,
      "Ġactivity": 3695,
      "èĮ¶": 3696,
      "éĢĤåºĶ": 3697,
      "èĦĳ": 3698,
      "æİ¢ç´¢": 3699,
      "ffic": 3700,
      "ç»ĦæĪĲ": 3701,
      "atives": 3702,
      "äºļ": 3703,
      "Ġscen": 3704,
      "æ²Ļ": 3705,
      "gress": 3706,
      "ä½¿å¾Ĺ": 3707,
      "æī¿": 3708,
      "Ġdiscrim": 3709,
      "Ġassistants": 3710,
      "Ġexist": 3711,
      "çķĻ": 3712,
      "Ġspace": 3713,
      "æľĢè¿ĳ": 3714,
      "Ġideas": 3715,
      "éĩĩåıĸ": 3716,
      "light": 3717,
      "æ³¨éĩį": 3718,
      "çļĦæĹ¶éĹ´": 3719,
      "è¿İ": 3720,
      "Ġcomb": 3721,
      "éĢĤå½ĵ": 3722,
      "Ġyourself": 3723,
      "rite": 3724,
      "ason": 3725,
      "åĮĢ": 3726,
      "åı¯ä»¥ä½¿çĶ¨": 3727,
      "åħħæ»¡": 3728,
      "Ġvalues": 3729,
      "æ½": 3730,
      "Ġbiases": 3731,
      "ä¿ĥè¿Ľ": 3732,
      "åľºæĻ¯": 3733,
      "ross": 3734,
      "åį³åı¯": 3735,
      "Ġcru": 3736,
      "Ġnumber": 3737,
      "Ġtype": 3738,
      "rast": 3739,
      "åĩĨç¡®": 3740,
      "This": 3741,
      "Ġpast": 3742,
      "çģ¯": 3743,
      "å®ļä¹ī": 3744,
      "Ġsolutions": 3745,
      "Ġter": 3746,
      "ä¿Ŀè¯ģ": 3747,
      "èĶ¬": 3748,
      "å¹¸": 3749,
      "åī§": 3750,
      "åħ´è¶£": 3751,
      "åª": 3752,
      "ention": 3753,
      "avor": 3754,
      "Ġscient": 3755,
      "åĬªåĬĽ": 3756,
      "Ġproviders": 3757,
      "Ġpolicies": 3758,
      "alu": 3759,
      "ĠIm": 3760,
      "Ġallows": 3761,
      "Ġintelligence": 3762,
      "çļĦæĸ¹æ³ķ": 3763,
      "è¿Ļæĺ¯": 3764,
      "Ġ`": 3765,
      "Ġemissions": 3766,
      "Ġå°Ĩ": 3767,
      "Ġmeaning": 3768,
      "Ġstyle": 3769,
      "åİŁåĽł": 3770,
      "Ġstrugg": 3771,
      "çļĦç¾İ": 3772,
      "iful": 3773,
      "dition": 3774,
      "éĥ½æľī": 3775,
      "ç©ºæ°Ķ": 3776,
      "å®ĥä»¬çļĦ": 3777,
      "ä¼ĺåĮĸ": 3778,
      "Ġinflu": 3779,
      "åŁºäºİ": 3780,
      "Ġdetails": 3781,
      "Ġtransparency": 3782,
      "Ġmess": 3783,
      "ĠCl": 3784,
      "Ġgame": 3785,
      "pri": 3786,
      "è¶ĭåĬ¿": 3787,
      "å½Ĵ": 3788,
      "ç¿»è¯ĳ": 3789,
      "æķ£": 3790,
      "By": 3791,
      "éŃ": 3792,
      "ĠAmeric": 3793,
      "Ġproduction": 3794,
      "Ġincorpor": 3795,
      "æĻļ": 3796,
      "Ġinvolve": 3797,
      "Ġhot": 3798,
      "æĻ®": 3799,
      "by": 3800,
      "Ġflow": 3801,
      "Ġemerg": 3802,
      "åº§": 3803,
      "Ġidea": 3804,
      "åİĭåĬĽ": 3805,
      "éĿĴ": 3806,
      "oms": 3807,
      "èģĮä¸ļ": 3808,
      "Ġreport": 3809,
      "Ġpap": 3810,
      "Ġtherap": 3811,
      "Ġsal": 3812,
      "åıĤä¸İ": 3813,
      "æĸĩåŃ¦": 3814,
      "æĲŃéħį": 3815,
      "oot": 3816,
      "),": 3817,
      "Ġcr": 3818,
      "Ġprocesses": 3819,
      "gin": 3820,
      "å¹³åı°": 3821,
      "å¯Ł": 3822,
      "Ġpromoting": 3823,
      "æļĸ": 3824,
      "akehold": 3825,
      "ç»§": 3826,
      "iver": 3827,
      "æ¦Ĥ": 3828,
      "Ġmodels": 3829,
      "Ġdra": 3830,
      "èĸ": 3831,
      "Ġgroup": 3832,
      "è¶³å¤Ł": 3833,
      "Ġgreen": 3834,
      "Ġhealthy": 3835,
      "Ġcomfort": 3836,
      "Ġadditional": 3837,
      "ä¸Ģæ¬¡": 3838,
      "é¤Ĳåİħ": 3839,
      "Ġmaterials": 3840,
      "Ġmanage": 3841,
      "çļĦæ¯": 3842,
      "ä¼¤": 3843,
      "åıĬæĹ¶": 3844,
      "Ġglo": 3845,
      "Ġstat": 3846,
      "å¿«éĢŁ": 3847,
      "Ġmonitoring": 3848,
      "aily": 3849,
      "rand": 3850,
      "oice": 3851,
      "resh": 3852,
      "ç»Ħç»ĩ": 3853,
      "Ġunder": 3854,
      "Ġnecessary": 3855,
      "Ġhelpful": 3856,
      "ĠCol": 3857,
      "é»ĳæ´ŀ": 3858,
      "åģļåĩº": 3859,
      "Ġcourse": 3860,
      "Ġmat": 3861,
      "Ġleg": 3862,
      "Ġface": 3863,
      "ä»¤": 3864,
      "èī¯å¥½çļĦ": 3865,
      "ock": 3866,
      "åĮ»çĸĹ": 3867,
      "çĽĸ": 3868,
      "idence": 3869,
      "Ġassociated": 3870,
      "Ġprogress": 3871,
      "åľĨ": 3872,
      "Ġeveryone": 3873,
      "ç¼ĵ": 3874,
      "ĠEng": 3875,
      "word": 3876,
      "èĵĿ": 3877,
      "å¤©æ°Ķ": 3878,
      "Ġactions": 3879,
      "ems": 3880,
      "ĠPl": 3881,
      "å®Ļ": 3882,
      "ush": 3883,
      "é¡¾": 3884,
      "Ġcosts": 3885,
      "ator": 3886,
      "ç©¿": 3887,
      "Ġamounts": 3888,
      "èĶ¬èıľ": 3889,
      "..": 3890,
      "Ġmanner": 3891,
      "Ġconsequ": 3892,
      "æ°ĶåĢĻ": 3893,
      "Ġinsights": 3894,
      "being": 3895,
      "atory": 3896,
      "ener": 3897,
      "lex": 3898,
      "Ġmeans": 3899,
      "Ġcollaboration": 3900,
      "Ġperspect": 3901,
      "orm": 3902,
      "priate": 3903,
      "å°Ĭéĩį": 3904,
      "Ġtarget": 3905,
      "è®°å½ķ": 3906,
      "åĢĴ": 3907,
      "Ġrenewable": 3908,
      "æĦ¿": 3909,
      "èĥ½æºĲ": 3910,
      "Ġinput": 3911,
      "å®ĩå®Ļ": 3912,
      "ape": 3913,
      "Ġadjust": 3914,
      "eries": 3915,
      "Ġdire": 3916,
      "ä¾Ŀ": 3917,
      "ustr": 3918,
      "fect": 3919,
      "Ġbeautiful": 3920,
      "Ġdue": 3921,
      "reci": 3922,
      "çĮ®": 3923,
      "èĥĮæĻ¯": 3924,
      "èĤ¡": 3925,
      "Ġdam": 3926,
      "ik": 3927,
      "Ġadvanced": 3928,
      "çĽ¸å¯¹": 3929,
      "åĲįç§°": 3930,
      "Ġshort": 3931,
      "Ġobject": 3932,
      "è¿ĻéĩĮ": 3933,
      "éĢłæĪĲ": 3934,
      "èĲ¥éĶĢ": 3935,
      "çļĦæĥħæĦŁ": 3936,
      "ç¥¨": 3937,
      "Ġcountries": 3938,
      "ining": 3939,
      "istic": 3940,
      "Ġplans": 3941,
      "è´£ä»»": 3942,
      "Ġstakehold": 3943,
      "the": 3944,
      "Ġassess": 3945,
      "æĢĿèĢĥ": 3946,
      "ech": 3947,
      "æĪĲåĳĺ": 3948,
      "21": 3949,
      "Ġdaily": 3950,
      "Ġcomput": 3951,
      "çļĦæĥħåĨµ": 3952,
      "æıĲåĩº": 3953,
      "ĠâĢľ": 3954,
      "åªĴ": 3955,
      "ä¸Ńå¿ĥ": 3956,
      "ished": 3957,
      "ĠSe": 3958,
      "onomous": 3959,
      "ern": 3960,
      "ç»´æĬ¤": 3961,
      "ames": 3962,
      "Ġprioritize": 3963,
      "çº¸": 3964,
      "èĤ¥": 3965,
      "Ġtemper": 3966,
      "æ¸ħæ´ģ": 3967,
      "use": 3968,
      "æ±¡": 3969,
      "Ġminim": 3970,
      "æĺ¯åľ¨": 3971,
      "å¤§å°ı": 3972,
      "åĵªäºĽ": 3973,
      "Ġappreci": 3974,
      "reng": 3975,
      "Ġregulations": 3976,
      "ĠZ": 3977,
      "éĶĻè¯¯": 3978,
      "rans": 3979,
      "èĢĮä¸Ķ": 3980,
      "èĪ¬": 3981,
      "èĳ±": 3982,
      "èĨ": 3983,
      "æ°´å¹³": 3984,
      "è´Ńçī©": 3985,
      "åŃĹç¬¦ä¸²": 3986,
      "å¯¹æĸ¹": 3987,
      "Ġhim": 3988,
      "Ġconsequences": 3989,
      "å·´": 3990,
      "é¼ĵåĬ±": 3991,
      "Ġfil": 3992,
      "äººåĳĺ": 3993,
      "è·Ŀç¦»": 3994,
      "ĠWhen": 3995,
      "çļĦæ°´": 3996,
      "çī©çĲĨ": 3997,
      "åĲĮæĹ¶ä¹Ł": 3998,
      "åľ¨è¿Ļä¸ª": 3999,
      "åħ¶æ¬¡": 4000,
      ",\"": 4001,
      "æ¶²": 4002,
      "çĶ·": 4003,
      "ival": 4004,
      "åı¯ä»¥è®©": 4005,
      "æĥ¯": 4006,
      "Ġadvance": 4007,
      "Ġveh": 4008,
      "å¦ĤæŀľæĤ¨": 4009,
      "Ġestab": 4010,
      "ript": 4011,
      "ç«¯": 4012,
      "ä¸įä¼ļ": 4013,
      "Ġtransparent": 4014,
      "æķ°éĩı": 4015,
      "çĽĺ": 4016,
      "Ġspeak": 4017,
      "Ġpark": 4018,
      "Ġstakeholders": 4019,
      "éº": 4020,
      "Ġevent": 4021,
      "çļĦæķ°æį®": 4022,
      "èĩªåĬ¨": 4023,
      "ç»ĨèĬĤ": 4024,
      "è¯Ħä¼°": 4025,
      "æ¶¦": 4026,
      "Ġpreferences": 4027,
      "Ġveget": 4028,
      "æįŁ": 4029,
      "equ": 4030,
      "Ġgl": 4031,
      "Ġpain": 4032,
      "ogra": 4033,
      "Ġtraffic": 4034,
      "Ġoce": 4035,
      "ä¹ĺ": 4036,
      "ext": 4037,
      "âĢĿï¼Į": 4038,
      "Ġanother": 4039,
      "å¤ļå°ĳ": 4040,
      "Ġagainst": 4041,
      "ç»ıåİĨ": 4042,
      "è®¡ç®Ĺæľº": 4043,
      "èĢĲ": 4044,
      "è½¯ä»¶": 4045,
      "ĠPre": 4046,
      "Ġplants": 4047,
      "çĽ¸äºĴ": 4048,
      "é¢ĳ": 4049,
      "\\_": 4050,
      "Ġsame": 4051,
      "rug": 4052,
      "Ġvalu": 4053,
      "Ġocc": 4054,
      "çļĦç¤": 4055,
      "Ġsustainability": 4056,
      "ĠShe": 4057,
      "de": 4058,
      "ote": 4059,
      "Ġdig": 4060,
      "NA": 4061,
      "Ġcrucial": 4062,
      "æī§": 4063,
      "å±Ģ": 4064,
      "æĭŁ": 4065,
      "æĭĮ": 4066,
      "Ġnon": 4067,
      "Ġengaging": 4068,
      "Ġintern": 4069,
      "LP": 4070,
      "æ¸©åº¦": 4071,
      "æł¸": 4072,
      "æĬ¥åĳĬ": 4073,
      "æĿ¥è¶Ĭ": 4074,
      "hood": 4075,
      "ä¸īä¸ª": 4076,
      "å¦Ĥä¸ĭ": 4077,
      "çī©ä½ĵ": 4078,
      "force": 4079,
      "Ġneeded": 4080,
      "Ġimages": 4081,
      "Ġbuilding": 4082,
      "icious": 4083,
      "ĠæĪĳ": 4084,
      "è¶ĬæĿ¥è¶Ĭ": 4085,
      "æĶ¾åħ¥": 4086,
      "go": 4087,
      "éĻįä½İ": 4088,
      "å½ĵåľ°": 4089,
      "æ¶Īè´¹èĢħ": 4090,
      "ç£": 4091,
      "iversity": 4092,
      "é¢Ħç®Ĺ": 4093,
      "icle": 4094,
      "æ··åĲĪ": 4095,
      "Ġparticip": 4096,
      "Ġdishes": 4097,
      "Ġthroughout": 4098,
      "Ġwithin": 4099,
      "åı³": 4100,
      "é«ĺçļĦ": 4101,
      "Ġphot": 4102,
      "Ġtrust": 4103,
      "æĦıè¯Ĩ": 4104,
      "ä»¥ç¡®ä¿Ŀ": 4105,
      "çĬ¶æĢģ": 4106,
      "Ġautomation": 4107,
      "11": 4108,
      "Ġpost": 4109,
      "æīĭæľº": 4110,
      "works": 4111,
      "éĢı": 4112,
      "åºĵ": 4113,
      "Ġwind": 4114,
      "Ġ==": 4115,
      "Ġprocessing": 4116,
      "èĮĥåĽ´": 4117,
      "æĦıä¹ī": 4118,
      "è¿½æ±Ĥ": 4119,
      "Ã©": 4120,
      "å¾Ħ": 4121,
      "éĿł": 4122,
      "ä¸ĸ": 4123,
      "èĻ½": 4124,
      "ç«ŀäºī": 4125,
      "Ġappropriate": 4126,
      "æĽ´å¥½çļĦ": 4127,
      "Ġcharacter": 4128,
      "cl": 4129,
      "ç§ĺ": 4130,
      "itude": 4131,
      "Ġteac": 4132,
      "leep": 4133,
      "ĠDevelop": 4134,
      "ince": 4135,
      "å·¦": 4136,
      "ground": 4137,
      "è¡Įä¸ļ": 4138,
      "éĴĪå¯¹": 4139,
      "å¿ħè¦ģ": 4140,
      "Ġdeterm": 4141,
      "----------------": 4142,
      "Ġstreng": 4143,
      "do": 4144,
      "Ġchallenging": 4145,
      "ork": 4146,
      "Ġanx": 4147,
      "èī²çļĦ": 4148,
      "Ġhard": 4149,
      "æĺİç¡®": 4150,
      "åĪĨäº«": 4151,
      "æĶ¹åıĺ": 4152,
      "ä½³": 4153,
      "åıªæľī": 4154,
      "å±ķç¤º": 4155,
      "Ġcamp": 4156,
      "çº³": 4157,
      "aj": 4158,
      "etic": 4159,
      "ument": 4160,
      "ä½łåı¯ä»¥": 4161,
      "Ġpollut": 4162,
      "Ġhig": 4163,
      "pping": 4164,
      "ead": 4165,
      "çĦ¶èĢĮ": 4166,
      "ç¬¬äºĮ": 4167,
      "é¸Ł": 4168,
      "çī©åĵģ": 4169,
      "ä¸¾": 4170,
      "Ġencourage": 4171,
      "pecial": 4172,
      "Ġacross": 4173,
      "elves": 4174,
      "äºĭä»¶": 4175,
      "cle": 4176,
      "æ©": 4177,
      "åªĴä½ĵ": 4178,
      "ners": 4179,
      "Ġcal": 4180,
      "èĻ½çĦ¶": 4181,
      "åĽº": 4182,
      "ä¹łæĥ¯": 4183,
      "Ġsafe": 4184,
      "èĥ½éĩı": 4185,
      "istics": 4186,
      "ä¹ĭåīį": 4187,
      "Ġissue": 4188,
      "å¤ļä¸ª": 4189,
      "åĨ³çŃĸ": 4190,
      "è¾¾åĪ°": 4191,
      "æĹ©": 4192,
      "ä¸įåı¯": 4193,
      "ä¸ĢçĽ´": 4194,
      "å·¨": 4195,
      "æĦŁè°¢": 4196,
      "ĠNew": 4197,
      "ä¸Ģæ®µ": 4198,
      "Ġmachines": 4199,
      "å°Ĩåħ¶": 4200,
      "ç»§ç»Ń": 4201,
      "Ġword": 4202,
      "çī¹åĪ«": 4203,
      "Ġagriculture": 4204,
      "æĢİ": 4205,
      "éĢĲæ¸Ĳ": 4206,
      "éĵ¾": 4207,
      "è¯¾": 4208,
      "Ġkind": 4209,
      "å¢Ļ": 4210,
      "è°¢è°¢": 4211,
      "Ġalgorithm": 4212,
      "è£ħé¥°": 4213,
      "Ġalong": 4214,
      "Ġeasy": 4215,
      "äºĳ": 4216,
      "è§£åĨ³æĸ¹æ¡Ī": 4217,
      "Ġawareness": 4218,
      "'ve": 4219,
      "æĸ¹åĲĳ": 4220,
      "Ġnever": 4221,
      "Ġquickly": 4222,
      "Ġrespect": 4223,
      "çļĦæĻ": 4224,
      "Ġamong": 4225,
      "Ġaccountability": 4226,
      "Ġlaw": 4227,
      "ening": 4228,
      "Ġdefin": 4229,
      "Ġsurround": 4230,
      "éĵģ": 4231,
      "Ġpowerful": 4232,
      "An": 4233,
      "Ġcause": 4234,
      "æ¥": 4235,
      "æİĮæı¡": 4236,
      "è¿ĺæĺ¯": 4237,
      "Ġcreative": 4238,
      "è¡Ģ": 4239,
      "Ġlocated": 4240,
      "unning": 4241,
      "åľ°åĮº": 4242,
      "éĿ¢ç§¯": 4243,
      "éĽ¨": 4244,
      "Ġnear": 4245,
      "Ġiniti": 4246,
      "ression": 4247,
      "ä¸ĭæĿ¥": 4248,
      "25": 4249,
      "é©¶": 4250,
      "¾çĹħ": 4251,
      "ables": 4252,
      "æľīè¶£": 4253,
      "å¾ªçİ¯": 4254,
      "çŃĶæ¡Ī": 4255,
      "çł´": 4256,
      "ication": 4257,
      "éĻ¢": 4258,
      "æ²»çĸĹ": 4259,
      "Ġaddition": 4260,
      "äºĭæĥħ": 4261,
      "Ġbecause": 4262,
      "åıĪ": 4263,
      "èĤĮ": 4264,
      "çºª": 4265,
      "side": 4266,
      "æĭħ": 4267,
      "æ¹¿": 4268,
      "åįĬ": 4269,
      "é¡º": 4270,
      "ĠAnd": 4271,
      "Ġrestaurant": 4272,
      "Ġvide": 4273,
      "Ġproblem": 4274,
      "azing": 4275,
      "Ġmembers": 4276,
      "Ġnut": 4277,
      "Ġcou": 4278,
      "æµª": 4279,
      "Ġè¿Ļ": 4280,
      "Ġhelping": 4281,
      "ĠIs": 4282,
      "æıĲåįĩ": 4283,
      "ĠĠĠĠĠĠ": 4284,
      "Ġsho": 4285,
      "Ġrelev": 4286,
      "Ġarg": 4287,
      "Ġbalance": 4288,
      "illed": 4289,
      "æĺ¯ä»Ģä¹Ī": 4290,
      "åĬĽéĩı": 4291,
      "ired": 4292,
      "å¤ľ": 4293,
      "åı¯æĮģç»Ń": 4294,
      "Ġperfect": 4295,
      "**": 4296,
      "ification": 4297,
      "æ¶ī": 4298,
      "Ġwildlife": 4299,
      "ane": 4300,
      "Ġrelated": 4301,
      "å®¤åĨħ": 4302,
      "åºľ": 4303,
      "äº«åıĹ": 4304,
      "ours": 4305,
      "è·ĳ": 4306,
      "åķĨä¸ļ": 4307,
      "aching": 4308,
      "Ġsun": 4309,
      "Ġrecognition": 4310,
      "elt": 4311,
      "Ġorder": 4312,
      "å¹³åĿĩ": 4313,
      "ging": 4314,
      "ä¸´": 4315,
      "çĤ¼": 4316,
      "Ġgoing": 4317,
      "åĳ¼åĲ¸": 4318,
      "Ġsoftware": 4319,
      "Ġremot": 4320,
      "èĳĹåĲį": 4321,
      "å¹¸ç¦ı": 4322,
      "Ġenhance": 4323,
      "èĻļ": 4324,
      "Ġnow": 4325,
      "Ġthreat": 4326,
      "Ġdest": 4327,
      "åĿĩåĮĢ": 4328,
      "Ġacad": 4329,
      "åºĶå¯¹": 4330,
      "çľĭåĪ°": 4331,
      "cast": 4332,
      "è¾Ĩ": 4333,
      "ificial": 4334,
      "Ġvery": 4335,
      "ook": 4336,
      "åĮºåŁŁ": 4337,
      "¹ģ": 4338,
      "æĪ¿éĹ´": 4339,
      "æıĲä¾ĽäºĨ": 4340,
      "Ġmotiv": 4341,
      "Ġaccessible": 4342,
      "åĨ³å®ļ": 4343,
      "Ġhy": 4344,
      "å®Ī": 4345,
      "Ġflo": 4346,
      "ug": 4347,
      "Ġinformed": 4348,
      "åĵģè´¨": 4349,
      "çļĦçŁ": 4350,
      "aves": 4351,
      "arr": 4352,
      "ĠWith": 4353,
      "let": 4354,
      "è§ĤçĤ¹": 4355,
      "enge": 4356,
      "è¡ĮåĬ¨": 4357,
      "friend": 4358,
      "ç³ķ": 4359,
      "Ġfurther": 4360,
      "ĠEns": 4361,
      "ç§ģ": 4362,
      "Ġado": 4363,
      "Ġclean": 4364,
      "çĽ¸åºĶ": 4365,
      "Ġfre": 4366,
      "pecially": 4367,
      "èĹ": 4368,
      "Ġcapt": 4369,
      "çļĦçľ": 4370,
      "Ġsomeone": 4371,
      "Ġcell": 4372,
      "æĶ¾åľ¨": 4373,
      "æ¬¢è¿İ": 4374,
      "ĠâĢ": 4375,
      "Ġdevices": 4376,
      "çļĦæĸ¹å¼ı": 4377,
      "Ġjobs": 4378,
      "augh": 4379,
      "not": 4380,
      "æľīäºĽ": 4381,
      "åħ¬åħ±": 4382,
      "gest": 4383,
      "çļĦçĶŁæ´»": 4384,
      "çľ¼": 4385,
      "çļĦä¿¡æģ¯": 4386,
      "ĠCons": 4387,
      "æİĴåºı": 4388,
      "Ġbenefit": 4389,
      "rect": 4390,
      "å¤ı": 4391,
      "unte": 4392,
      "ç¬¦åĲĪ": 4393,
      "ä¸Ģä½į": 4394,
      "åĨħéĥ¨": 4395,
      "Ġlooking": 4396,
      "ding": 4397,
      "æĬĺ": 4398,
      "è¾ĳ": 4399,
      "è¿Ļä¸ªéĹ®é¢ĺ": 4400,
      "Ġespecially": 4401,
      "çľł": 4402,
      "âĢĿãĢĤ": 4403,
      "å¥ı": 4404,
      "ray": 4405,
      "è¿ĺåı¯ä»¥": 4406,
      "åĪĽä½ľ": 4407,
      "coming": 4408,
      "Ġmultiple": 4409,
      "éļĲ": 4410,
      "æ³¡": 4411,
      "æłĩåĩĨ": 4412,
      "Ġmil": 4413,
      "éľĢè¦ģæ³¨æĦı": 4414,
      "Ġanxiety": 4415,
      "æĶ¹è¿Ľ": 4416,
      "å±ĭ": 4417,
      "æ±¡æŁĵ": 4418,
      "ç¼ĸç¨ĭ": 4419,
      "è´¹çĶ¨": 4420,
      "Ġevalu": 4421,
      "imately": 4422,
      "Ġliter": 4423,
      "ograph": 4424,
      "Ġsearch": 4425,
      "16": 4426,
      "enced": 4427,
      "Ġmethods": 4428,
      "çĥĪ": 4429,
      "æ¨¡å¼ı": 4430,
      "çĬ¶åĨµ": 4431,
      "æĶ¹åĸĦ": 4432,
      "å¤ļæł·": 4433,
      "cer": 4434,
      "å¥ĸ": 4435,
      "Ġsatis": 4436,
      "Ġwebsite": 4437,
      "åĬŀ": 4438,
      "åģ¥èº«": 4439,
      "Ġglobal": 4440,
      "Ġask": 4441,
      "Ġplatforms": 4442,
      "Ġdiseases": 4443,
      "çİ°è±¡": 4444,
      "tics": 4445,
      "æ±ģ": 4446,
      "åĪ¤æĸŃ": 4447,
      "Ġconvers": 4448,
      "Ġrelationship": 4449,
      "è®¾ç½®": 4450,
      "æ³ķå¾ĭ": 4451,
      "Ġmindful": 4452,
      "é¢Ħæµĭ": 4453,
      "overy": 4454,
      "åģľ": 4455,
      "çĶµè§Ĩ": 4456,
      "è§ĦåĪĻ": 4457,
      "aken": 4458,
      "Ġimplementing": 4459,
      "ising": 4460,
      "åıĤåĬł": 4461,
      "æĥħç»ª": 4462,
      "Ġprovided": 4463,
      "æ·±åħ¥": 4464,
      "Ġprogrammed": 4465,
      "Ġrelevant": 4466,
      "çļĦçĥ": 4467,
      "çĸ¾çĹħ": 4468,
      "åĮ»çĶŁ": 4469,
      "åĪĽå»º": 4470,
      "Ġgenerate": 4471,
      "æĶ¶åħ¥": 4472,
      "ä¼ĳ": 4473,
      "izes": 4474,
      "Ġtransform": 4475,
      "éģµ": 4476,
      "astic": 4477,
      "åĳĪ": 4478,
      "æ¯ıä¸ªäºº": 4479,
      "è¿Ķ": 4480,
      "iet": 4481,
      "Ġvoice": 4482,
      "éĢĶ": 4483,
      "æĶ¾æĿ¾": 4484,
      "åį´": 4485,
      "èĥľ": 4486,
      "Ġstructure": 4487,
      "æĹ¶å°ļ": 4488,
      "ĠQ": 4489,
      "Ġelse": 4490,
      "duc": 4491,
      "Ġemp": 4492,
      "èģļ": 4493,
      "è´§": 4494,
      "aches": 4495,
      "ç§Ģ": 4496,
      "anks": 4497,
      "Ġnight": 4498,
      "Ġprofessionals": 4499,
      "Ġbas": 4500,
      "è´µ": 4501,
      "ec": 4502,
      "Ġdiversity": 4503,
      "ites": 4504,
      "dr": 4505,
      "åĽ°éļ¾": 4506,
      "ĥåľ": 4507,
      "åŀĥåľ": 4508,
      "åŀĥåľ¾": 4509,
      "Ġdrug": 4510,
      "ç¢³": 4511,
      "Ġname": 4512,
      "åĮĸçļĦ": 4513,
      "aid": 4514,
      "æľĢå¤§": 4515,
      "æĳĦ": 4516,
      "ç®ĢåįķçļĦ": 4517,
      "Ġwarm": 4518,
      "Ġdone": 4519,
      "Ġfunction": 4520,
      "asc": 4521,
      "å¼ºè°ĥ": 4522,
      "Ġdemand": 4523,
      "Ġvisual": 4524,
      "Ġupd": 4525,
      "æŃ£åľ¨": 4526,
      "Ġsimilar": 4527,
      "éĢĴ": 4528,
      "æ¯Ľ": 4529,
      "éĶ»": 4530,
      "ently": 4531,
      "Ġvaluable": 4532,
      "Ġdisaster": 4533,
      "ä¸ĢèĪ¬": 4534,
      "æ´²": 4535,
      "ĠReg": 4536,
      "Ġdiscrimination": 4537,
      "åĨĻä¸Ģç¯ĩ": 4538,
      "Ġgovernment": 4539,
      "Ġå¥½çļĦ": 4540,
      "500": 4541,
      "lying": 4542,
      "Ġprev": 4543,
      "Ġprepare": 4544,
      "Ġproblems": 4545,
      "è·³": 4546,
      "Ġprom": 4547,
      "åĨ²": 4548,
      "å®īè£ħ": 4549,
      "éĶ»çĤ¼": 4550,
      "æµĵ": 4551,
      "è¹": 4552,
      "åºĶçĶ¨ç¨ĭåºı": 4553,
      "ng": 4554,
      "Ġcompet": 4555,
      "åĪĨåĪ«": 4556,
      "ological": 4557,
      "å®¡": 4558,
      "Ġtransl": 4559,
      "Ġdirect": 4560,
      "åīĤ": 4561,
      "Ġsuggestions": 4562,
      "Ġpaper": 4563,
      "Ġrecognize": 4564,
      "ton": 4565,
      "Ġmitigate": 4566,
      "è®¨è®º": 4567,
      "äºĴåĬ¨": 4568,
      "ĠEar": 4569,
      "Ġamazing": 4570,
      "cre": 4571,
      "é¦Ī": 4572,
      "Ġinvolved": 4573,
      "face": 4574,
      "æľīåħ³": 4575,
      "))": 4576,
      "Ġexce": 4577,
      "Ġproductivity": 4578,
      "èŃ": 4579,
      "é¦Ĩ": 4580,
      "Ġsounds": 4581,
      "Ġidentifying": 4582,
      "],": 4583,
      "é¾Ļ": 4584,
      "Ġfit": 4585,
      "Ġcontribute": 4586,
      "ths": 4587,
      "friendly": 4588,
      "ele": 4589,
      "ified": 4590,
      "iveness": 4591,
      "itely": 4592,
      "ĠX": 4593,
      "Ġled": 4594,
      "åĿı": 4595,
      "Ġhistor": 4596,
      "Ġdat": 4597,
      "Ġjourney": 4598,
      "Ġ}": 4599,
      "Ġselect": 4600,
      "æ¼«": 4601,
      "Ġconduct": 4602,
      "è¿Ľä¸ĢæŃ¥": 4603,
      "ç»ĻæĪĳ": 4604,
      "Ġlif": 4605,
      "è£ħä¿®": 4606,
      "ä¸ºä»Ģä¹Ī": 4607,
      "äº¬": 4608,
      "Ġnav": 4609,
      "Ġwhole": 4610,
      "ç¹ģ": 4611,
      "åĨľ": 4612,
      "æĶ»": 4613,
      "Ġbreat": 4614,
      "Ġmiss": 4615,
      "é¾Ħ": 4616,
      "tt": 4617,
      "sw": 4618,
      "Ġbar": 4619,
      "è¯·éĹ®": 4620,
      "èģĶç½ĳ": 4621,
      "Ġattract": 4622,
      "æĤ¨åı¯ä»¥": 4623,
      "One": 4624,
      "åħħåĪĨ": 4625,
      "ring": 4626,
      "Ġå½ĵçĦ¶": 4627,
      "ream": 4628,
      "Ġevol": 4629,
      "Ġsn": 4630,
      "ĠEm": 4631,
      "mosp": 4632,
      "Ġchoose": 4633,
      "view": 4634,
      "Ġarr": 4635,
      "Ġsleep": 4636,
      "ended": 4637,
      "æŀ¶": 4638,
      "Ġvehicles": 4639,
      "Ġfresh": 4640,
      "Ġorganization": 4641,
      "è¿Ļæ®µ": 4642,
      "æ±¤": 4643,
      "ĠInt": 4644,
      "Ġcontext": 4645,
      "åı¦å¤ĸ": 4646,
      "Ġocean": 4647,
      "æĦŁåıĹ": 4648,
      "Ġpollution": 4649,
      "urb": 4650,
      "æī§è¡Į": 4651,
      "ersonal": 4652,
      "ĠHealth": 4653,
      "ä¼ĺçĤ¹": 4654,
      "Ġattention": 4655,
      "æľīçĿĢ": 4656,
      "é£ŁæĿĲ": 4657,
      "Ġerr": 4658,
      "çļĦæĿ¥": 4659,
      "çļĦçĪ": 4660,
      "èŃ¦": 4661,
      "è·Ł": 4662,
      "æĹħè¡Į": 4663,
      "èĴľ": 4664,
      "çļĦæĢĿ": 4665,
      "Ġchatbot": 4666,
      "çļĦéľĢæ±Ĥ": 4667,
      "çķ¥": 4668,
      "Ġfeeling": 4669,
      "Ġimplemented": 4670,
      "ç¤¾åĮº": 4671,
      "çļĦå»ºè®®": 4672,
      "æĲħ": 4673,
      "éĹ»": 4674,
      "åıįé¦Ī": 4675,
      "çĽ´æİ¥": 4676,
      "æĺ¥": 4677,
      "itable": 4678,
      "æĪĳä¼ļ": 4679,
      "åį±": 4680,
      "èī¯å¥½": 4681,
      "Ġliving": 4682,
      "åıĺéĩı": 4683,
      "ĠBut": 4684,
      "Ġcomplete": 4685,
      "Ġtrends": 4686,
      "Ġmakes": 4687,
      "ä»Ĭå¤©": 4688,
      "Ġdistribut": 4689,
      "Ġcommit": 4690,
      "Ġatmosp": 4691,
      "ä¼´": 4692,
      "Ġsensors": 4693,
      "Ġsw": 4694,
      "æĹłè®º": 4695,
      "omen": 4696,
      "æĶ¿åºľ": 4697,
      "Ġchallenge": 4698,
      "Ġturn": 4699,
      "çĲĨè®º": 4700,
      "par": 4701,
      "Ġwrite": 4702,
      "ç»ıåħ¸": 4703,
      "emember": 4704,
      "é¥Ń": 4705,
      "æĸ¹ä¾¿": 4706,
      "Ġcu": 4707,
      "Ġvalue": 4708,
      "Ġfund": 4709,
      "pose": 4710,
      "è°ĥæŁ¥": 4711,
      "çĿ¡": 4712,
      "Ġcommunicate": 4713,
      "Ġdisease": 4714,
      "Ġresearc": 4715,
      "Ġlack": 4716,
      "arning": 4717,
      "ĠPark": 4718,
      "çĦ¦": 4719,
      "é«ĺåº¦": 4720,
      "Ġrather": 4721,
      "å®£": 4722,
      "çĪ¶": 4723,
      "éĺ¶": 4724,
      "è®¢": 4725,
      "çĥ§": 4726,
      "Ġhigher": 4727,
      "Ġsummary": 4728,
      "ĠAut": 4729,
      "çļĦæ³": 4730,
      "Ġele": 4731,
      "isms": 4732,
      "Ġreli": 4733,
      "ä¹Łä¼ļ": 4734,
      "fra": 4735,
      "åĳĬè¯īæĪĳ": 4736,
      "æĬ½": 4737,
      "Ġsituations": 4738,
      "Ġmarine": 4739,
      "æĥ³è¦ģ": 4740,
      "inci": 4741,
      "inal": 4742,
      "Ġgain": 4743,
      "Ġdifference": 4744,
      "æľºåĻ¨äºº": 4745,
      "æµģç¨ĭ": 4746,
      "ĠChat": 4747,
      "ç½ĳç«Ļ": 4748,
      "æľ«": 4749,
      "Ġcolor": 4750,
      "Ġaspect": 4751,
      "ç½Ĺ": 4752,
      "ĠEduc": 4753,
      "Ġdeploy": 4754,
      "Ġbeauty": 4755,
      "æĤ£": 4756,
      "ruction": 4757,
      "itut": 4758,
      "æĿŁ": 4759,
      "è®©æĪĳä»¬": 4760,
      "éķ¿åº¦": 4761,
      "ules": 4762,
      "æ¶īåıĬ": 4763,
      "Ġdigital": 4764,
      "Ġexisting": 4765,
      "ĠOr": 4766,
      "\\_\\_": 4767,
      "Ġbackground": 4768,
      "çĹĩ": 4769,
      "æ¯ıå¤©": 4770,
      "python": 4771,
      "Ġfarmers": 4772,
      "Ġcontinu": 4773,
      "\":": 4774,
      "Ġgiven": 4775,
      "å°ıæĹ¶": 4776,
      "Ġmoment": 4777,
      "200": 4778,
      "John": 4779,
      "éĿ¢å¯¹": 4780,
      "Ġintro": 4781,
      "Ġtherapy": 4782,
      "è¿ĶåĽŀ": 4783,
      "å¹¶åľ¨": 4784,
      "Ġz": 4785,
      "Ġafford": 4786,
      "ä¸Ŀ": 4787,
      "å®½": 4788,
      "ĠÃ": 4789,
      "ĠNational": 4790,
      "èĥ¡": 4791,
      "Ġexercise": 4792,
      "æĲħæĭĮ": 4793,
      "æĶ¯ä»ĺ": 4794,
      "éĺ³åħī": 4795,
      "è¯ļ": 4796,
      "Ġsect": 4797,
      "ĠSu": 4798,
      "å¢ŀéķ¿": 4799,
      "ç¾İä¸½": 4800,
      "Ġwa": 4801,
      "ä»¥ä¸ĭæĺ¯ä¸ĢäºĽ": 4802,
      "èĽĭç³ķ": 4803,
      "Ġill": 4804,
      "æ¸ħæĻ": 4805,
      "etry": 4806,
      "æ¢¦": 4807,
      "ç¾İåĽ½": 4808,
      "ä»į": 4809,
      "oney": 4810,
      "Ġecosystems": 4811,
      "æĮĩå¯¼": 4812,
      "def": 4813,
      "99": 4814,
      "æŁĶ": 4815,
      "pped": 4816,
      "Ġlimit": 4817,
      "çİī": 4818,
      "Ġacademic": 4819,
      "Ġrestaurants": 4820,
      "Ġhead": 4821,
      "ä¿¡ä»»": 4822,
      "asters": 4823,
      "å²ģ": 4824,
      "akers": 4825,
      "14": 4826,
      "As": 4827,
      "æł¡": 4828,
      "é«ĺæķĪ": 4829,
      "phas": 4830,
      "yn": 4831,
      "ç¨ĭåº¦": 4832,
      "è¾£": 4833,
      "ä¸ĬéĿ¢": 4834,
      "å®¶å±ħ": 4835,
      "term": 4836,
      "ç¾İé£Ł": 4837,
      "Ġovers": 4838,
      "å®ĺ": 4839,
      "Ġindic": 4840,
      "ĠYour": 4841,
      "St": 4842,
      "å½¢è±¡": 4843,
      "è´¡": 4844,
      "åºĬ": 4845,
      "ĠSc": 4846,
      "agra": 4847,
      "çľŁæŃ£": 4848,
      "oint": 4849,
      "ids": 4850,
      "arent": 4851,
      "éĵ¶": 4852,
      "èģĬ": 4853,
      "Ġregular": 4854,
      "ä¼ĺç§Ģ": 4855,
      "Ġcolle": 4856,
      "çĸĳ": 4857,
      "Ġsubject": 4858,
      "Ġgreater": 4859,
      "Ġstore": 4860,
      "åŁ¹è®Ń": 4861,
      "Ġimag": 4862,
      "Ġansw": 4863,
      "ä½Ļ": 4864,
      "Ġspot": 4865,
      "åĪĨåŃĲ": 4866,
      "Ġaudience": 4867,
      "pet": 4868,
      "Ġvers": 4869,
      "Ġtrail": 4870,
      "åĭĩ": 4871,
      "erous": 4872,
      "Ġguidance": 4873,
      "Ġspeech": 4874,
      "åĵ²": 4875,
      "æĺ¯çĶ±": 4876,
      "è´¡çĮ®": 4877,
      "åĲĪéĢĤçļĦ": 4878,
      "è®¾æĸ½": 4879,
      "ä»ĸäºº": 4880,
      "ensive": 4881,
      "åĢ¾": 4882,
      "aling": 4883,
      "Ġprojects": 4884,
      "å³": 4885,
      "Ġtakes": 4886,
      "ç»©": 4887,
      "That": 4888,
      "Ġbro": 4889,
      "ived": 4890,
      "Ġ&": 4891,
      "åĿĲ": 4892,
      "placement": 4893,
      "è¿ŀæİ¥": 4894,
      "çļĦç¤¾": 4895,
      "ĠTra": 4896,
      "Ġrelax": 4897,
      "ufact": 4898,
      "éģį": 4899,
      "Ġsurv": 4900,
      "åı£åĳ³": 4901,
      "Ġcreativity": 4902,
      "of": 4903,
      "å¨ģ": 4904,
      "çļĦçł": 4905,
      "Ġbreath": 4906,
      "Ġplaces": 4907,
      "Ġdescrib": 4908,
      "èĭ±è¯Ń": 4909,
      "Ġdamage": 4910,
      "oration": 4911,
      "ä¸ºæĤ¨": 4912,
      "ift": 4913,
      "Ġcase": 4914,
      "å¹´é¾Ħ": 4915,
      "Ġpress": 4916,
      "çĶľ": 4917,
      "éĩİ": 4918,
      "æĹħæ¸¸": 4919,
      "Ġtaken": 4920,
      "ined": 4921,
      "Ġconcept": 4922,
      "æĴŃ": 4923,
      "Ġinteresting": 4924,
      "è·µ": 4925,
      "Ġsea": 4926,
      "60": 4927,
      "Ġfoot": 4928,
      "ĠName": 4929,
      "Ġresearchers": 4930,
      "éĢģ": 4931,
      "Ġwee": 4932,
      ");": 4933,
      "çļĦåħ³éĶ®": 4934,
      "ä¼½": 4935,
      "elebr": 4936,
      "å¡ĳ": 4937,
      "We": 4938,
      "ç»ıå¸¸": 4939,
      "Ġpopulations": 4940,
      "åħ¬å¼ı": 4941,
      "orn": 4942,
      "çĩĥ": 4943,
      "äººçĶŁ": 4944,
      "17": 4945,
      "æİ¥åıĹ": 4946,
      "Ġlocation": 4947,
      "Ġinequ": 4948,
      "Ġintervent": 4949,
      "Ġinterested": 4950,
      "Ġdefinitely": 4951,
      "Ġassistance": 4952,
      "è¿Ļä¸Ģ": 4953,
      "åĲĪåĲĮ": 4954,
      "ä¼ĺåĬ¿": 4955,
      "çļĦå·¥ä½ľ": 4956,
      "Ġ12": 4957,
      "Ġmov": 4958,
      "åģı": 4959,
      "åŃĺåĤ¨": 4960,
      "usive": 4961,
      "æĹı": 4962,
      "ï¼īï¼Į": 4963,
      "Ġgas": 4964,
      "Ġinterests": 4965,
      "æ¸ħæĻ°": 4966,
      "Ġgard": 4967,
      "çĸ«": 4968,
      "Ġsay": 4969,
      "å¤«": 4970,
      "ges": 4971,
      "èĲ¨": 4972,
      "ä¸ļåĬ¡": 4973,
      "ä¸ªæĢ§": 4974,
      "åĲ¯": 4975,
      "Ġengagement": 4976,
      "Ġbig": 4977,
      "éľĢè¦ģèĢĥèĻĳ": 4978,
      "Ġprinci": 4979,
      "åĳ¨åĽ´": 4980,
      "Ġopportunity": 4981,
      "çģ¾": 4982,
      "èĹı": 4983,
      "rel": 4984,
      "ç¼ºçĤ¹": 4985,
      "Ġhappy": 4986,
      "åĴĮåħ¶ä»ĸ": 4987,
      "ava": 4988,
      "Ġestablish": 4989,
      "é¸¡èĽĭ": 4990,
      "iking": 4991,
      "ĠTrans": 4992,
      "rastructure": 4993,
      "forest": 4994,
      "èİ·åıĸ": 4995,
      "èĦļ": 4996,
      "inally": 4997,
      "èµı": 4998,
      "Ġdelicious": 4999,
      "Ġresults": 5000,
      "è§Ĥå¯Ł": 5001,
      "å®ŀè·µ": 5002,
      "Ġlast": 5003,
      "Ġpolit": 5004,
      "æĢ§èĥ½": 5005,
      "For": 5006,
      "bi": 5007,
      "çĽ¸ä¿¡": 5008,
      "ffee": 5009,
      "Ġphr": 5010,
      "Ġforest": 5011,
      "elling": 5012,
      "æµģè¡Į": 5013,
      "atic": 5014,
      "å¤§å®¶": 5015,
      "ĠInst": 5016,
      "æķ°åŃ¦": 5017,
      "æī©": 5018,
      "å®Įåħ¨": 5019,
      "å¼ķèµ·": 5020,
      "ese": 5021,
      "è½¬æį¢": 5022,
      "Ġaffected": 5023,
      "Ġrobotics": 5024,
      "ç»¼ä¸Ĭ": 5025,
      "Ġprop": 5026,
      "è®©äºº": 5027,
      "æ²³": 5028,
      "ä¸ŃæľĢ": 5029,
      "Ġautonomous": 5030,
      "Ġhaving": 5031,
      "Ġtrip": 5032,
      "ury": 5033,
      "Ġbiased": 5034,
      "Ġconsiderations": 5035,
      "Ġparticular": 5036,
      "åįł": 5037,
      "æİ¨å¹¿": 5038,
      "Ġinitiatives": 5039,
      "ials": 5040,
      "åĳ³éģĵ": 5041,
      "Ġtreatments": 5042,
      "Ġemphas": 5043,
      "çĭ¬çī¹çļĦ": 5044,
      "Ġlay": 5045,
      "æĶ¿çŃĸ": 5046,
      "æĢİä¹Ī": 5047,
      "ronic": 5048,
      "play": 5049,
      "Ġcook": 5050,
      "è¿Ľåħ¥": 5051,
      "è½®": 5052,
      "Ġvolunte": 5053,
      "Ġrain": 5054,
      "ĠMon": 5055,
      "Ġconsumption": 5056,
      "èĽĭçĻ½": 5057,
      "ĠSoc": 5058,
      "å£¤": 5059,
      "Ġroutine": 5060,
      "Ġimproved": 5061,
      "To": 5062,
      "äººçī©": 5063,
      "è¯»èĢħ": 5064,
      "Ġgoal": 5065,
      "å¹¿åĳĬ": 5066,
      "éķ¿æľŁ": 5067,
      "Ġey": 5068,
      "He": 5069,
      "Ġoutdo": 5070,
      "Ġcuis": 5071,
      "Ġaway": 5072,
      "Ġbooks": 5073,
      "Ġtopic": 5074,
      "å¤§åĪ©": 5075,
      "house": 5076,
      "Ġones": 5077,
      "ç§Ł": 5078,
      "':": 5079,
      "æĪ¿å±ĭ": 5080,
      "ç§»åĬ¨": 5081,
      "Ġdisasters": 5082,
      "ests": 5083,
      "illing": 5084,
      "ç»¿èī²": 5085,
      "åĵ²åŃ¦": 5086,
      "æĪĲåĪĨ": 5087,
      "Ġoccur": 5088,
      "ľä¼½": 5089,
      "åľŁå£¤": 5090,
      "çļĦä¸»è¦ģ": 5091,
      "çİ°å®ŀ": 5092,
      "Ġanimal": 5093,
      "é¢Ĩå¯¼": 5094,
      "Ġviews": 5095,
      "éĤ®": 5096,
      "æ°§åĮĸ": 5097,
      "athy": 5098,
      "éģĵå¾·": 5099,
      "ç¤¾äº¤åªĴä½ĵ": 5100,
      "ĠPersonal": 5101,
      "ĽåĽ´": 5102,
      "Ġpurch": 5103,
      "Ġcountry": 5104,
      "Ġremind": 5105,
      "å¯¸": 5106,
      "Ġrights": 5107,
      "çļĦçİ¯å¢ĥ": 5108,
      "ĠPr": 5109,
      "Ġline": 5110,
      "ibr": 5111,
      "é©¾": 5112,
      "Ġmaj": 5113,
      "Ġovercome": 5114,
      "Ġnext": 5115,
      "æīĢè¿°": 5116,
      "è§Ħå®ļ": 5117,
      "Ġinteractions": 5118,
      "Ġconflic": 5119,
      "Ġwhy": 5120,
      "ç³»åĪĹ": 5121,
      "å°¼": 5122,
      "ibly": 5123,
      "çīĽå¥¶": 5124,
      "Ġresponses": 5125,
      "ses": 5126,
      "åŃ¦ä¼ļ": 5127,
      "bol": 5128,
      "Ġstandards": 5129,
      "ulner": 5130,
      "å¯¹è¯ĿåĨħå®¹": 5131,
      "lished": 5132,
      "çļĦæĢ§": 5133,
      "çĶŁæĢģç³»ç»Ł": 5134,
      "ann": 5135,
      "æĥħåĨµä¸ĭ": 5136,
      "å¯»æ±Ĥ": 5137,
      "Ġhold": 5138,
      "den": 5139,
      "åįĥ": 5140,
      "Ġmention": 5141,
      "ĠMany": 5142,
      "çĽ´åĪ°": 5143,
      "éģĹ": 5144,
      "hel": 5145,
      "Ġbelieve": 5146,
      "aries": 5147,
      "æľīä¸Ģä¸ª": 5148,
      "13": 5149,
      "Ġatmosphere": 5150,
      "Ġmor": 5151,
      "æĹ¥æľŁ": 5152,
      "ä¹ħ": 5153,
      "ä½łå¥½": 5154,
      "Ġaddressing": 5155,
      "ĠâĢĵ": 5156,
      "çļĦåľ°æĸ¹": 5157,
      "ming": 5158,
      "Ġcannot": 5159,
      "Ġmanufact": 5160,
      "Ġpie": 5161,
      "icing": 5162,
      "Ġstudies": 5163,
      "ç¾İåĳ³": 5164,
      "ĠAmerican": 5165,
      "ĠNLP": 5166,
      "Ġaccording": 5167,
      "mselves": 5168,
      "èĦĤ": 5169,
      "èĩªä¿¡": 5170,
      "æīĢéľĢ": 5171,
      "Ġthemselves": 5172,
      "Ġremote": 5173,
      "åŁ¹åħ»": 5174,
      "å®īæİĴ": 5175,
      "ä½łéľĢè¦ģ": 5176,
      "Ġregard": 5177,
      "iring": 5178,
      "è¯ĨåĪ«": 5179,
      "Ġarticle": 5180,
      "æģĴ": 5181,
      "æĢ»çļĦæĿ¥": 5182,
      "Ġalign": 5183,
      "æ±ł": 5184,
      "tenance": 5185,
      "faction": 5186,
      "åĬ¨ä½ľ": 5187,
      "çļĦç©": 5188,
      "ç¼©": 5189,
      "æĢ¥": 5190,
      "Ġ100": 5191,
      "Ġtesting": 5192,
      "åŃĹæ¯į": 5193,
      "å¹´è½»": 5194,
      "åĪ¶éĢł": 5195,
      "Ġswe": 5196,
      "å°º": 5197,
      "hens": 5198,
      "æ°´æŀľ": 5199,
      "Ġinfrastructure": 5200,
      "èī²å½©": 5201,
      "æĢ»çļĦæĿ¥è¯´": 5202,
      "æľīä»Ģä¹Ī": 5203,
      "text": 5204,
      "è½¦è¾Ĩ": 5205,
      "Ġpay": 5206,
      "rop": 5207,
      "ĊĠĠ": 5208,
      "Ġcaused": 5209,
      "Ġcorrect": 5210,
      "Ġì": 5211,
      "èĥŀ": 5212,
      "ĠMed": 5213,
      "ç²¾ç¥ŀ": 5214,
      "æ°ĶåĢĻåıĺåĮĸ": 5215,
      "ĠRed": 5216,
      "äºĴèģĶç½ĳ": 5217,
      "Ġengage": 5218,
      "åĪĨä¸º": 5219,
      "ĠData": 5220,
      "Ġfull": 5221,
      "enc": 5222,
      "éĩįæĸ°": 5223,
      "æŃ£ç¡®çļĦ": 5224,
      "çļĦæ°Ķ": 5225,
      "åıĮæĸ¹": 5226,
      "Ġcomes": 5227,
      "åı¤ä»£": 5228,
      "æŁĲäºĽ": 5229,
      "åĳĪçİ°": 5230,
      "Ġtoday": 5231,
      "aged": 5232,
      "æĪĳåı¯ä»¥": 5233,
      "æĹ¥å¸¸": 5234,
      "æ»ĳ": 5235,
      "Ġclin": 5236,
      "Ġ\\": 5237,
      "Ġobs": 5238,
      "Ġartificial": 5239,
      "Ġexcell": 5240,
      "çļĦç¬": 5241,
      "alls": 5242,
      "Ġproduce": 5243,
      "ĠDes": 5244,
      "oss": 5245,
      "è¹Ī": 5246,
      "Ġdraw": 5247,
      "Ġletter": 5248,
      "Ġadvice": 5249,
      "Ġhighly": 5250,
      "çĬ¯": 5251,
      "ç»¼ä¸ĬæīĢè¿°": 5252,
      "æ»¡æĦı": 5253,
      "Ġprinciples": 5254,
      "èĮĦ": 5255,
      "Ġfeelings": 5256,
      "çļĦæ´": 5257,
      "Ġhom": 5258,
      "Ġfail": 5259,
      "Ġcrop": 5260,
      "å§ľ": 5261,
      "Ġquestion": 5262,
      "Ġdisabilities": 5263,
      "èĪŀè¹Ī": 5264,
      "Ġimplications": 5265,
      "ral": 5266,
      "Ġsing": 5267,
      "40": 5268,
      "Ġfamil": 5269,
      "Ġgovernments": 5270,
      "Ġrecord": 5271,
      "å½¢çĬ¶": 5272,
      "Ġbegin": 5273,
      "ises": 5274,
      "çļĦæĥ³": 5275,
      "achine": 5276,
      "è°±": 5277,
      "Ġvulner": 5278,
      "Ġproper": 5279,
      "Ġoversight": 5280,
      "è´ŁéĿ¢": 5281,
      "Ġemail": 5282,
      "Ġnews": 5283,
      "Ġexploring": 5284,
      "Ġfavor": 5285,
      "æ¥¼": 5286,
      "å®ľ": 5287,
      "Ġunivers": 5288,
      "å·®å¼Ĥ": 5289,
      "ï¼īãĢĤ": 5290,
      "è§£åĨ³éĹ®é¢ĺ": 5291,
      "Ġfamous": 5292,
      "gn": 5293,
      "Ġmessage": 5294,
      "atitude": 5295,
      "Ġcra": 5296,
      "Ġcover": 5297,
      "æ·±åĪ»": 5298,
      "åı¯ä»¥éĢīæĭ©": 5299,
      "çĶŁæ´»ä¸Ń": 5300,
      "ç§įç±»": 5301,
      "Ġsmart": 5302,
      "onstr": 5303,
      "vey": 5304,
      "çĶ²": 5305,
      "Ġregularly": 5306,
      "ĠSm": 5307,
      "æĦŁè§ī": 5308,
      "Ġthought": 5309,
      "Ġexh": 5310,
      "cure": 5311,
      "ç»ĺ": 5312,
      "è®¤è¯Ĩ": 5313,
      "Ġold": 5314,
      "æĦī": 5315,
      "ç§°ä¸º": 5316,
      "Ġfields": 5317,
      "Ġconsist": 5318,
      "ãģ": 5319,
      "ç»Ĩèĥŀ": 5320,
      "Ġhours": 5321,
      "80": 5322,
      "alking": 5323,
      "è§īå¾Ĺ": 5324,
      "ç»Ŀ": 5325,
      "ä½łä»¬": 5326,
      "ĠEnglish": 5327,
      "Ġsignificantly": 5328,
      "Ġsource": 5329,
      "Ġant": 5330,
      "Ġeducational": 5331,
      "Ġtask": 5332,
      "Ġhandle": 5333,
      "æĲľ": 5334,
      "ĠSp": 5335,
      "Ġcalled": 5336,
      "Ġterms": 5337,
      "æ²ī": 5338,
      "Ġwin": 5339,
      "duction": 5340,
      "Ġmodern": 5341,
      "Ġcuisine": 5342,
      "å¥Ĺ": 5343,
      "è§¦": 5344,
      "olutely": 5345,
      "ç«¥": 5346,
      "pite": 5347,
      "Ġfelt": 5348,
      "Ġcompre": 5349,
      "Ġwond": 5350,
      "è¿Ĳè¡Į": 5351,
      "Ġresil": 5352,
      "çĽ¸ä¼¼": 5353,
      "éĩĳèŀį": 5354,
      "çĪ±æĥħ": 5355,
      "ç¬Ķ": 5356,
      "èĪª": 5357,
      "è°Ī": 5358,
      "åĬĽçļĦ": 5359,
      "æľīæīĢ": 5360,
      "æ½ľ": 5361,
      "ulate": 5362,
      "Ġdetection": 5363,
      "å®£ä¼ł": 5364,
      "Ġmatter": 5365,
      "éĩıåŃĲ": 5366,
      "Write": 5367,
      "ç»ĵåĲĪ": 5368,
      "ç»ıè¿ĩ": 5369,
      "Ġdevelopers": 5370,
      "èª": 5371,
      "Ġ---": 5372,
      "äººéĻħ": 5373,
      "çŃ¾": 5374,
      "ï¼ļâĢľ": 5375,
      "Ġinnovative": 5376,
      "ãĢĤâĢĿ": 5377,
      "å½¼": 5378,
      "é¥¼": 5379,
      "è¿ĩåº¦": 5380,
      "Ġplanet": 5381,
      "åħ°": 5382,
      "å¸ģ": 5383,
      "æķ¬": 5384,
      "Ġlegal": 5385,
      "Ġlot": 5386,
      "æĪĲä¸ºäºĨ": 5387,
      "iate": 5388,
      "Ġmis": 5389,
      "åģĩè®¾": 5390,
      "çļĦæĸĩç«ł": 5391,
      "ĠCompan": 5392,
      "Ġdoc": 5393,
      "Ġcareful": 5394,
      "Ġever": 5395,
      "æĪĳä»¬å°Ĩ": 5396,
      "ä¾ĭåŃĲ": 5397,
      "ä¹³": 5398,
      "ä½ľèĢħ": 5399,
      "åĲ§": 5400,
      "æļ´": 5401,
      "Ġremember": 5402,
      "çĽ®çļĦ": 5403,
      "Ġput": 5404,
      "å¸¸è§ģçļĦ": 5405,
      "Ġfest": 5406,
      "å»ºè®¾": 5407,
      "å®ŀçĶ¨": 5408,
      "Ġactive": 5409,
      "çªĹ": 5410,
      "outh": 5411,
      "åİŁçĲĨ": 5412,
      "Ġtrying": 5413,
      "è¿·": 5414,
      "çĽ¸åĲĮ": 5415,
      "éħĴåºĹ": 5416,
      "Another": 5417,
      "æľĢä½³": 5418,
      "Ġanalytics": 5419,
      "Ġperpet": 5420,
      "ipment": 5421,
      "Ġå¦Ĥæŀľ": 5422,
      "è§Ĥä¼Ĺ": 5423,
      "Ġcelebr": 5424,
      "Ġheav": 5425,
      "Ġmeditation": 5426,
      "å¤§æ°Ķ": 5427,
      "And": 5428,
      "ä¸įéĶĻ": 5429,
      "Ġwhether": 5430,
      "set": 5431,
      "Ġdemonstr": 5432,
      "ä¸Ģæ¬¾": 5433,
      "æĶ¶éĽĨ": 5434,
      "éĻĲåĪ¶": 5435,
      "Ġing": 5436,
      "Ġrevolution": 5437,
      "çľģ": 5438,
      "Ġscience": 5439,
      "çĽ®åīį": 5440,
      "Ġthinking": 5441,
      "±ä¹Ĳ": 5442,
      "è¯¾ç¨ĭ": 5443,
      "Ġpack": 5444,
      "Ġimage": 5445,
      "loc": 5446,
      "Ġstories": 5447,
      "uck": 5448,
      "Ġsatisfaction": 5449,
      "Ġcollection": 5450,
      "ho": 5451,
      "èµŀ": 5452,
      "éĿ¢ä¸´": 5453,
      "Ġla": 5454,
      "Ġsymbol": 5455,
      "Ġemb": 5456,
      "Ġhabitats": 5457,
      "Ġlower": 5458,
      "Ġcontinues": 5459,
      "éľĩ": 5460,
      "åĵĪ": 5461,
      "ĠTake": 5462,
      "Ġenvironments": 5463,
      "Ġthree": 5464,
      "Ġenc": 5465,
      "ĠAcc": 5466,
      "æĦıåĳ³": 5467,
      "åİ¨": 5468,
      "chan": 5469,
      "ĠHum": 5470,
      "Ġtrue": 5471,
      "åĪĩæĪĲ": 5472,
      "sing": 5473,
      "âĢĶâĢĶ": 5474,
      "åĩºæĿ¥": 5475,
      "Ġregion": 5476,
      "Ġinterpre": 5477,
      "Ġdiagnosis": 5478,
      "éŀ": 5479,
      "Ġdoing": 5480,
      "Ġrun": 5481,
      "Ġcoffee": 5482,
      "Ġmajor": 5483,
      "Ġmindfulness": 5484,
      "Ġaffordable": 5485,
      "çĻ¾": 5486,
      "Ġdetailed": 5487,
      "éĿŀå¸¸éĩįè¦ģçļĦ": 5488,
      "çļĦæ²ŁéĢļ": 5489,
      "çļĦæķħ": 5490,
      "åĢĴåħ¥": 5491,
      "Ġthemes": 5492,
      "Ġnetwork": 5493,
      "ï¼īï¼ļ": 5494,
      "ĠUnited": 5495,
      "çļĦæĮĩ": 5496,
      "orts": 5497,
      "åį«çĶŁ": 5498,
      "Ġplanning": 5499,
      "æĥł": 5500,
      "åīª": 5501,
      "ĠProv": 5502,
      "çļĦåºĶçĶ¨": 5503,
      "Ġperi": 5504,
      "Ġaccountable": 5505,
      "çīĻ": 5506,
      "çļĦçģ": 5507,
      "Ġchoice": 5508,
      "ĠComm": 5509,
      "idents": 5510,
      "çļĦå®īåħ¨": 5511,
      "å¹¶ä¸į": 5512,
      "å¤ªéĺ³ç³»": 5513,
      "Ġreceive": 5514,
      "Ġclose": 5515,
      "çļĦæĹ¶åĢĻ": 5516,
      "Ġchanging": 5517,
      "ä»·åĢ¼è§Ĥ": 5518,
      "Ġperpetu": 5519,
      "Ġseason": 5520,
      "Ġmen": 5521,
      "Ġlearned": 5522,
      "Ġsituation": 5523,
      "Ġreplace": 5524,
      "head": 5525,
      "è®©æĪĳ": 5526,
      "åľ¨ä¸Ģèµ·": 5527,
      "çļĦç©º": 5528,
      "éľ²": 5529,
      "Ġenough": 5530,
      "å±ķçİ°": 5531,
      "Ġleaders": 5532,
      "ancing": 5533,
      "Ġtemperature": 5534,
      "åı«": 5535,
      "Ġ30": 5536,
      "æĦıåĳ³çĿĢ": 5537,
      "æ±ĩ": 5538,
      "ĠGovern": 5539,
      "Ġfocused": 5540,
      "uro": 5541,
      "Ġsimple": 5542,
      "Ġhiking": 5543,
      "æ¯Ĵ": 5544,
      "Ġcomprehens": 5545,
      "äºĪ": 5546,
      "Ġcreated": 5547,
      "cond": 5548,
      "é¡µ": 5549,
      "ĠWor": 5550,
      "è¯ģæį®": 5551,
      "Ġworkplace": 5552,
      "Ġcharacters": 5553,
      "çļĦè®¾è®¡": 5554,
      "Ġmechan": 5555,
      "ĠDis": 5556,
      "ç¥ŀç§ĺ": 5557,
      "å·ŀ": 5558,
      "ĠOn": 5559,
      "</": 5560,
      "ç§įæ¤į": 5561,
      "Ġpath": 5562,
      "Ġlimited": 5563,
      "Ġsolar": 5564,
      "çļĦæı": 5565,
      "22": 5566,
      "Ġappreciate": 5567,
      "å¿«ä¹Ĳ": 5568,
      "æĦŁåıĹåĪ°": 5569,
      "èĢĹ": 5570,
      "med": 5571,
      "icine": 5572,
      "Ġnote": 5573,
      "å½ĵåīį": 5574,
      "æĪĳä»¬åºĶè¯¥": 5575,
      "Ġseen": 5576,
      "ä¸ĢåĲį": 5577,
      "å°½åı¯èĥ½": 5578,
      "è¿Ĳç®Ĺ": 5579,
      "è§Ĵåº¦": 5580,
      "Ġequipment": 5581,
      "Ġspread": 5582,
      "è¸": 5583,
      "è®¿": 5584,
      "åı¥è¯Ŀ": 5585,
      "æĮ¥": 5586,
      "Ġpurpose": 5587,
      "è¯·ä½ł": 5588,
      "Your": 5589,
      "arian": 5590,
      "ä»ª": 5591,
      "Ġperspectives": 5592,
      "åĩºäºĨ": 5593,
      "å©ļç¤¼": 5594,
      "Ġexcellent": 5595,
      "ĠEnsuring": 5596,
      "Ġreach": 5597,
      "éĺ¶æ®µ": 5598,
      "ä¿Ŀéļľ": 5599,
      "Ġempathy": 5600,
      "ĠMy": 5601,
      "çĳľä¼½": 5602,
      "Ġver": 5603,
      "abel": 5604,
      "ĠPredict": 5605,
      "Ġmaintenance": 5606,
      "è¯Ħä»·": 5607,
      "Ġult": 5608,
      "åĴ¨": 5609,
      "ox": 5610,
      "åĴ¨è¯¢": 5611,
      "Ġshared": 5612,
      "ina": 5613,
      "list": 5614,
      "Ġoutdoor": 5615,
      "Ġthoughts": 5616,
      "inating": 5617,
      "éĴ±": 5618,
      "Ġframe": 5619,
      "éĺ¿": 5620,
      "åĪ©æ¶¦": 5621,
      "çļĦæİ¨": 5622,
      "åįļ": 5623,
      "Ġrecent": 5624,
      "Ġaltern": 5625,
      "ared": 5626,
      "==": 5627,
      "Ġroad": 5628,
      "äºĭé¡¹": 5629,
      "ged": 5630,
      "ynt": 5631,
      "Ġspend": 5632,
      "ç½ª": 5633,
      "åıĸå¾Ĺ": 5634,
      "é¹": 5635,
      "li": 5636,
      "æĹ¶æľŁ": 5637,
      "ä¸¥éĩį": 5638,
      "å¿Ĩ": 5639,
      "å©´": 5640,
      "æİ¥ä¸ĭæĿ¥": 5641,
      "ĠEarth": 5642,
      "ĠChatbots": 5643,
      "Ġsetting": 5644,
      "ç¥Ŀ": 5645,
      "éĶĢåĶ®é¢Ŀ": 5646,
      "ä¼¦": 5647,
      "Ġreading": 5648,
      "æİ¢è®¨": 5649,
      "aign": 5650,
      "éŀĭ": 5651,
      "Ġyoung": 5652,
      "Ġcareer": 5653,
      "Ġteachers": 5654,
      "çļĦè´¨éĩı": 5655,
      "å±ŀäºİ": 5656,
      "Ġeasier": 5657,
      "Ġscientific": 5658,
      "ç¾İåħĥ": 5659,
      "Ġspir": 5660,
      "åĬ³": 5661,
      "çļĦæĶ¯": 5662,
      "rist": 5663,
      "èµĦäº§": 5664,
      "çĶŁåŃĺ": 5665,
      "èĩ³å°ĳ": 5666,
      "å§¿": 5667,
      "Ġvideo": 5668,
      "Ġaim": 5669,
      "å®Ŀå®Ŀ": 5670,
      "çĪ¶æ¯į": 5671,
      "________________": 5672,
      "alities": 5673,
      "Ġbud": 5674,
      "Ġstreet": 5675,
      "Ġæĺ¯": 5676,
      "æĸ¹ç¨ĭ": 5677,
      "ä¸ĸçºª": 5678,
      "ches": 5679,
      "earch": 5680,
      "æĴ°": 5681,
      "Ġengine": 5682,
      "Ġdisplacement": 5683,
      "ĠRobots": 5684,
      "ervised": 5685,
      "é¡¶": 5686,
      "oud": 5687,
      "Ġwalk": 5688,
      "Ġemergency": 5689,
      "èģĺ": 5690,
      "nal": 5691,
      "Ġdatas": 5692,
      "åĢº": 5693,
      "åĲİçļĦ": 5694,
      "å¾Īå¥½": 5695,
      "Ġmyself": 5696,
      "çļĦæīĭ": 5697,
      "Ġusage": 5698,
      "Ġshown": 5699,
      "æ®Ĭ": 5700,
      "Ġtypically": 5701,
      "uly": 5702,
      "æĸ°éĹ»": 5703,
      "æĽ¿": 5704,
      "Ġorig": 5705,
      "è½»æĿ¾": 5706,
      "æĺ¾ç¤º": 5707,
      "Ġadopt": 5708,
      "èĤ¡ç¥¨": 5709,
      "Ġparent": 5710,
      "aps": 5711,
      "æĢĿæĥ³": 5712,
      "Ġmarketing": 5713,
      "èĻ«": 5714,
      "éĥ¨éĹ¨": 5715,
      "çļĦæķĪ": 5716,
      "Ġcomfortable": 5717,
      "åŃ¦ä¹łåĴĮ": 5718,
      "Ġforecast": 5719,
      "iction": 5720,
      "Ġgetting": 5721,
      "Ġtrees": 5722,
      "aving": 5723,
      "çļĦåŁºç¡Ģ": 5724,
      "ready": 5725,
      "æĸ°é²ľ": 5726,
      "going": 5727,
      "¹é¥": 5728,
      "Ġevidence": 5729,
      "¹é¥ª": 5730,
      "ç§ĭ": 5731,
      "æľīå¾Īå¤ļ": 5732,
      "éĿ¢è¯ķ": 5733,
      "éģĩåĪ°": 5734,
      "ç»Ļå®ļ": 5735,
      "irc": 5736,
      "åı¯ä»¥æł¹æį®": 5737,
      "é©¾é©¶": 5738,
      "å·§åħĭ": 5739,
      "Ġstunning": 5740,
      "çļĦæ¦Ĥ": 5741,
      "æ¡Į": 5742,
      "ĠJohn": 5743,
      "ulation": 5744,
      "åıĤèĢĥ": 5745,
      "Ġflex": 5746,
      "çĦ¦èĻĳ": 5747,
      "ymakers": 5748,
      "Ġforms": 5749,
      "sh": 5750,
      "val": 5751,
      "ĠSo": 5752,
      "co": 5753,
      "æİ¨åĬ¨": 5754,
      "èħ¿": 5755,
      "çī¹æ®Ĭ": 5756,
      "Ġenab": 5757,
      "å°Ĩä¼ļ": 5758,
      "æĶ¯åĩº": 5759,
      "åĿļæĮģ": 5760,
      "çº¢èī²": 5761,
      "Ġoption": 5762,
      "Ġstarted": 5763,
      "ration": 5764,
      "Ġpoetry": 5765,
      "Ġport": 5766,
      "gen": 5767,
      "èªī": 5768,
      "Ġdeliv": 5769,
      "çĶļ": 5770,
      "éĢ»": 5771,
      "éĢīé¡¹": 5772,
      "Ġground": 5773,
      "å½¼æŃ¤": 5774,
      "ana": 5775,
      "çļĦæĹ¥": 5776,
      "åľ¨çº¿": 5777,
      "Ġsecure": 5778,
      "Ġæł¹æį®": 5779,
      "é¥®æĸĻ": 5780,
      "Ġgratitude": 5781,
      "ç¬¬ä¸ī": 5782,
      "Ġsong": 5783,
      "Ġpoints": 5784,
      "Ġalready": 5785,
      "çļĦçĪ±": 5786,
      "ĠTechn": 5787,
      "Ġreality": 5788,
      "çıŃ": 5789,
      "Ġsince": 5790,
      "Ġpopulation": 5791,
      "yond": 5792,
      "bor": 5793,
      "ĠSocial": 5794,
      "æıĲåıĸ": 5795,
      "å·¥ç¨ĭ": 5796,
      "aff": 5797,
      "äº¤æĺĵ": 5798,
      "Ġworth": 5799,
      "å¡«": 5800,
      "å¨±ä¹Ĳ": 5801,
      "Ġdog": 5802,
      "ĠArt": 5803,
      "ç¡¬": 5804,
      "æµ·æ´ĭ": 5805,
      "åĨĴ": 5806,
      "çīĪ": 5807,
      "Ġprogramming": 5808,
      "ĠAss": 5809,
      "ĠMachine": 5810,
      "åĢ¼å¾Ĺ": 5811,
      "è¯·è¾ĵåħ¥": 5812,
      "å£°éŁ³": 5813,
      "Ġexercises": 5814,
      "åħīçº¿": 5815,
      "æ³ķåĴĮ": 5816,
      "Ġfeature": 5817,
      "eff": 5818,
      "è¿ĽæŃ¥": 5819,
      "å¥³æĢ§": 5820,
      "Ġefficiently": 5821,
      "çļĦæĬĢæľ¯": 5822,
      "Ġgenetic": 5823,
      "ä»¤äºº": 5824,
      "è´¦": 5825,
      "çļĦäº§åĵģ": 5826,
      "åİļ": 5827,
      "åĴĮæĸĩåĮĸ": 5828,
      "éĻĦ": 5829,
      "Ġmob": 5830,
      "ç»¼åĲĪ": 5831,
      "ters": 5832,
      "æľīä¸Ģ": 5833,
      "å¦Ĩ": 5834,
      "åįĪ": 5835,
      "Ġoutside": 5836,
      "Ġpropert": 5837,
      "éĤ®ä»¶": 5838,
      "ä¸»ä¹ī": 5839,
      "Ġpolicy": 5840,
      "èĩªèº«": 5841,
      "Ġnavigate": 5842,
      "Ġsty": 5843,
      "çĶµèĦĳ": 5844,
      "Ġabilities": 5845,
      "Ġfaced": 5846,
      "çļĦç¼": 5847,
      "çļĦå°ı": 5848,
      "èķ": 5849,
      "Ġtone": 5850,
      "igation": 5851,
      "åıĤæķ°": 5852,
      "èĽĭçĻ½è´¨": 5853,
      "ä½Ľ": 5854,
      "çĶļèĩ³": 5855,
      "Ġskin": 5856,
      "èĴ¸": 5857,
      "æĭĽ": 5858,
      "éŃĶ": 5859,
      "ashion": 5860,
      "Ġingred": 5861,
      "æĹĭ": 5862,
      "Ġcampaign": 5863,
      "Ġmount": 5864,
      "Ġconsid": 5865,
      "Ġmuse": 5866,
      "nter": 5867,
      "water": 5868,
      "ä¼ļè®®": 5869,
      "Ġprotection": 5870,
      "ä¿ĿéĻ©": 5871,
      "Ġcrops": 5872,
      "ogle": 5873,
      "éļıæĹ¶": 5874,
      "æļĹ": 5875,
      "ium": 5876,
      "ä¹ı": 5877,
      "Ġdiet": 5878,
      "lies": 5879,
      "çĶ¨æĿ¥": 5880,
      "ĠEncoura": 5881,
      "æĬĹ": 5882,
      "apan": 5883,
      "éĺ²æŃ¢": 5884,
      "Wow": 5885,
      "çļĦåŁºæľ¬": 5886,
      "å¹³æĸ¹": 5887,
      "Ġstep": 5888,
      "åı¯éĿł": 5889,
      "è¡¨æĺİ": 5890,
      "Ġpredictions": 5891,
      "Ġsympt": 5892,
      "Ġdiagnoses": 5893,
      "åħ¬åĽŃ": 5894,
      "Ġsupply": 5895,
      "Ġprevious": 5896,
      "ç»ĦåĲĪ": 5897,
      ".,": 5898,
      "çļĦè¿ĩç¨ĭ": 5899,
      "æķı": 5900,
      "su": 5901,
      "aris": 5902,
      "çķħ": 5903,
      "ocol": 5904,
      "æĲľç´¢": 5905,
      "itle": 5906,
      "éĨĴ": 5907,
      "é¡¾å®¢": 5908,
      "éĢ»è¾ĳ": 5909,
      "éĿŀå¸¸éĩįè¦ģ": 5910,
      "ĠBi": 5911,
      "å·¦åı³": 5912,
      "amm": 5913,
      "Ġeverything": 5914,
      "æĺł": 5915,
      "Ġincred": 5916,
      "Ġpeace": 5917,
      "èľľ": 5918,
      "Ġmuseum": 5919,
      "çĭ¬ç«ĭ": 5920,
      "Ġcomprehensive": 5921,
      "Ġrates": 5922,
      "//": 5923,
      "Ġrad": 5924,
      "åĦ¿ç«¥": 5925,
      "çī¹èī²": 5926,
      "ĠPredictive": 5927,
      "å¼ķåĬĽ": 5928,
      "ler": 5929,
      "å°¤": 5930,
      "icro": 5931,
      "è¡¥": 5932,
      "Ġdetermine": 5933,
      "çļĦåĨħå®¹": 5934,
      "Ġcompl": 5935,
      "Ġgreenhouse": 5936,
      "èħĲ": 5937,
      "Ġhighlight": 5938,
      "Ġpartners": 5939,
      "Ġdoct": 5940,
      "çļĦä½¿çĶ¨": 5941,
      "æŃĮæĽ²": 5942,
      "æĮĩåįĹ": 5943,
      "ĠAf": 5944,
      "æľºæŀĦ": 5945,
      "éĢĢ": 5946,
      "Ġpoems": 5947,
      "å¿ĥåĴĮ": 5948,
      "Ġattend": 5949,
      "çļĦæ¸¸": 5950,
      "Ġside": 5951,
      "ales": 5952,
      "Ġmentioned": 5953,
      "ĠAbs": 5954,
      "Ġhistorical": 5955,
      "Ġleft": 5956,
      "ä»¥ä¸ĭåĩłä¸ª": 5957,
      "åıĹæ¬¢è¿İ": 5958,
      "èıľåĵģ": 5959,
      "Ġremain": 5960,
      "æĩ": 5961,
      "Ġtours": 5962,
      "łéģĵ": 5963,
      "Ġerrors": 5964,
      "æľºåĪ¶": 5965,
      "æ¦": 5966,
      "æĤ£èĢħ": 5967,
      "more": 5968,
      "Ġexperts": 5969,
      "çļĦçłĶç©¶": 5970,
      "ç»ĵæĿŁ": 5971,
      "Ġwritten": 5972,
      "çłĶ": 5973,
      "Ġet": 5974,
      "input": 5975,
      "æ°Ķä½ĵ": 5976,
      "èļ": 5977,
      "æĥĬ": 5978,
      "Ġage": 5979,
      "éĩįå¤į": 5980,
      "å¼¹": 5981,
      "åŃ¤": 5982,
      "Ġsymptoms": 5983,
      "Ġbelief": 5984,
      "'d": 5985,
      "iol": 5986,
      "Ġ18": 5987,
      "åħħè¶³": 5988,
      "çıį": 5989,
      "forcement": 5990,
      "æĸĹ": 5991,
      "ªèĮĦ": 5992,
      "Ġ15": 5993,
      "ä¸Ģä¸ªäºº": 5994,
      "Ġapplic": 5995,
      "è´¥": 5996,
      "ä½įäºİ": 5997,
      "éĻ¤äºĨ": 5998,
      "=\"": 5999,
      "ä¸īè§Ĵ": 6000,
      "æĢĿç»´": 6001,
      "åį·": 6002,
      "Ġfru": 6003,
      "ĠCollabor": 6004,
      "Ġprim": 6005,
      "Ġrequired": 6006,
      "Ġwatch": 6007,
      "è°ĥåĳ³": 6008,
      "ç»ĵè®º": 6009,
      "ony": 6010,
      "Ġguide": 6011,
      "Ġmax": 6012,
      "ĠCould": 6013,
      "Ġadvent": 6014,
      "ĠOverall": 6015,
      "çļĦæĬķ": 6016,
      "Ġexper": 6017,
      "åĺ": 6018,
      "icial": 6019,
      "oster": 6020,
      "çļĦé¢ľèī²": 6021,
      "Ġoperations": 6022,
      "éĥģ": 6023,
      "Ġmoney": 6024,
      "ley": 6025,
      "cling": 6026,
      "Ġoil": 6027,
      "çļ®èĤ¤": 6028,
      "Ġge": 6029,
      "Ġbat": 6030,
      "ĠPh": 6031,
      "Ġsche": 6032,
      "Ġelectric": 6033,
      "vest": 6034,
      "Ġchain": 6035,
      "Ġcapabilities": 6036,
      "ird": 6037,
      "è¯ģæĺİ": 6038,
      "æľĢå¥½": 6039,
      "ivil": 6040,
      "Ġdepending": 6041,
      "Ġsave": 6042,
      "Ġpractical": 6043,
      "Ġcultures": 6044,
      "çĽ¸åºĶçļĦ": 6045,
      "sy": 6046,
      "çļĦç²": 6047,
      "Ġbehind": 6048,
      "æĹ¶éĹ´åĴĮ": 6049,
      "å¹ħ": 6050,
      "ĠAg": 6051,
      "Ġeffectiveness": 6052,
      "Ad": 6053,
      "ĠOf": 6054,
      "Ġanything": 6055,
      "å·§åħĭåĬĽ": 6056,
      "Ġmist": 6057,
      "Ġlanguages": 6058,
      "ĠMake": 6059,
      "å«": 6060,
      "æ£®": 6061,
      "ĠCont": 6062,
      "ĠAbsolutely": 6063,
      "Ġinvestment": 6064,
      "mat": 6065,
      "çļĦæķħäºĭ": 6066,
      "æ¬§": 6067,
      "Ġspeed": 6068,
      "çļĦæ¸©": 6069,
      "Ġcities": 6070,
      "åĨĻä½ľ": 6071,
      "Thanks": 6072,
      "Ġded": 6073,
      "åĪĨéħį": 6074,
      "Ġdark": 6075,
      "Ġsupporting": 6076,
      "å¹ķ": 6077,
      "ĠKe": 6078,
      "éĽ¶": 6079,
      "Ġsharing": 6080,
      "Ġhouse": 6081,
      "è®¤çŁ¥": 6082,
      "Ġsurrounding": 6083,
      "Ġreduced": 6084,
      "Ġfu": 6085,
      "Ġstor": 6086,
      "Ġabs": 6087,
      "Tom": 6088,
      "cent": 6089,
      "ĠEducation": 6090,
      "Ġthr": 6091,
      "ott": 6092,
      "ĠThat": 6093,
      "Ġhear": 6094,
      "ung": 6095,
      "Ġbeyond": 6096,
      "ĠCo": 6097,
      "room": 6098,
      "è¯ĹæŃĮ": 6099,
      "reme": 6100,
      "Ġlittle": 6101,
      "Ġgames": 6102,
      "ä¹ĭåĲİ": 6103,
      "éĥ½ä¼ļ": 6104,
      "è¯ŃéŁ³": 6105,
      "ç¬ĳ": 6106,
      "çī¹å®ļ": 6107,
      "ç¬¬ä¸Ģ": 6108,
      "Ġdepression": 6109,
      "Ġinnovation": 6110,
      "ĠFr": 6111,
      "Ġcomputer": 6112,
      "can": 6113,
      "å³°": 6114,
      "ç¼ĸåĨĻä¸Ģä¸ª": 6115,
      "Ġinternational": 6116,
      "Ġcancer": 6117,
      "åŃ¦èĢħ": 6118,
      "Ġdiscover": 6119,
      "het": 6120,
      "Ġcompos": 6121,
      "Ġrecy": 6122,
      "Ġ200": 6123,
      "åĲ«æľī": 6124,
      "çĹĽ": 6125,
      "ç¼ĵè§£": 6126,
      "Ġfrequ": 6127,
      "çĶ³": 6128,
      "ĠMar": 6129,
      "çļĦéĢīæĭ©": 6130,
      "Ġunt": 6131,
      "Ġregions": 6132,
      "Ġopin": 6133,
      "ĠGovernments": 6134,
      "æ¶Ĥ": 6135,
      "åĨħå¿ĥ": 6136,
      "ä¸ĬæľĢ": 6137,
      "ä»įçĦ¶": 6138,
      "lier": 6139,
      "æ³³": 6140,
      "äºĴçĽ¸": 6141,
      "ĠStud": 6142,
      "azon": 6143,
      "Ġarch": 6144,
      "Ġchem": 6145,
      "çļĦèĥ½åĬĽ": 6146,
      "çļĦä¸Ģä¸ª": 6147,
      "Ġap": 6148,
      "Ġred": 6149,
      "Ġwomen": 6150,
      "Ġprote": 6151,
      "Ġfinding": 6152,
      "å§»": 6153,
      "éĢĤå½ĵçļĦ": 6154,
      "Ġforward": 6155,
      "å¯¹è±¡": 6156,
      "Ġwait": 6157,
      "Ġconsidered": 6158,
      "dule": 6159,
      "backs": 6160,
      "Ġclinical": 6161,
      "åħ·å¤ĩ": 6162,
      "éº¦": 6163,
      "Ġongoing": 6164,
      "åĨĽ": 6165,
      "Ġfar": 6166,
      "åĴĮè°": 6167,
      "XXX": 6168,
      "Ġpolitical": 6169,
      "Ġcamer": 6170,
      "çļĦè¡Įä¸º": 6171,
      "æĦıå¤§åĪ©": 6172,
      "Ġapps": 6173,
      "åĩıè½»": 6174,
      "Ġreaders": 6175,
      "å©ļå§»": 6176,
      "æ°¸": 6177,
      "ores": 6178,
      "åħ¨éĿ¢": 6179,
      "ĠAfric": 6180,
      "Ġfavorite": 6181,
      "Ġmill": 6182,
      "Ġdang": 6183,
      "ĠStates": 6184,
      "åĢŁ": 6185,
      "å¯¿": 6186,
      "Ġlat": 6187,
      "è¿ĩåİ»": 6188,
      "Ġtruly": 6189,
      "åĽŀçŃĶéĹ®é¢ĺ": 6190,
      "Ġcogn": 6191,
      "ä»°": 6192,
      "ĠJapan": 6193,
      "izz": 6194,
      "çļĦæĿĲ": 6195,
      "xx": 6196,
      "é¢ĺçĽ®": 6197,
      "ription": 6198,
      "éĤ£äºĽ": 6199,
      "Ġbudget": 6200,
      "Ġvast": 6201,
      "éļĲç§ģ": 6202,
      "Ġpolicymakers": 6203,
      "è¿ĺéľĢè¦ģ": 6204,
      "å¹¶æıĲä¾Ľ": 6205,
      "Ġsweet": 6206,
      "Ġgeneral": 6207,
      "æ»¤": 6208,
      "Ġbirds": 6209,
      "Ġplastic": 6210,
      "Ċĉ": 6211,
      "åĪº": 6212,
      "mental": 6213,
      "Ġinclusive": 6214,
      "Ġtopics": 6215,
      "Ġslow": 6216,
      "ä½łèĥ½": 6217,
      "è¶³å¤ŁçļĦ": 6218,
      "è§Ĩè§ī": 6219,
      "ww": 6220,
      "Ġä½¿çĶ¨": 6221,
      "æī¹": 6222,
      "æ¦Ĥå¿µ": 6223,
      "é£ŁçĶ¨": 6224,
      "èĢ³": 6225,
      "cks": 6226,
      "Ġfraud": 6227,
      "Ġingredients": 6228,
      "Ġfasc": 6229,
      "åĮĹäº¬": 6230,
      "Ġfr": 6231,
      "Ġmanufacturing": 6232,
      "Ġä½ľä¸º": 6233,
      "Ġbeach": 6234,
      "é¡¿": 6235,
      "erious": 6236,
      "å¤ĸè§Ĥ": 6237,
      "é¢Ħéĺ²": 6238,
      "æĿ¥èĩª": 6239,
      "èĤĮèĤī": 6240,
      "Ġdays": 6241,
      "Ġassign": 6242,
      "Ġadvant": 6243,
      "Ġteams": 6244,
      "é¢Ĺ": 6245,
      "nown": 6246,
      "ĠPo": 6247,
      "}{": 6248,
      "Ġminut": 6249,
      "itions": 6250,
      "Ġeasily": 6251,
      "ĠBl": 6252,
      "name": 6253,
      "åŃ¦æł¡": 6254,
      "Ġresponsibility": 6255,
      "åıĳæĮ¥": 6256,
      "Ġsensitive": 6257,
      "çŃīäºİ": 6258,
      "cious": 6259,
      "Ġsou": 6260,
      "å±ı": 6261,
      "Ġrich": 6262,
      "å½ĵçĦ¶": 6263,
      "man": 6264,
      "Ġinterpret": 6265,
      "24": 6266,
      "Ġshows": 6267,
      "èģĮåľº": 6268,
      "Ġfall": 6269,
      "è½½": 6270,
      "ä¸°å¯ĮçļĦ": 6271,
      "('": 6272,
      "ä¿®æĶ¹": 6273,
      "æĽ´æį¢": 6274,
      "Al": 6275,
      "åı¯èĥ½æĺ¯": 6276,
      "Ġrate": 6277,
      "Ġprotecting": 6278,
      "fit": 6279,
      "Ġ50": 6280,
      "Ġmovement": 6281,
      "è§Ī": 6282,
      "Ġemployee": 6283,
      "Ġdisord": 6284,
      "åĪĽæĦı": 6285,
      "äº§åĵģçļĦ": 6286,
      "æľĿ": 6287,
      "ĊĠĠĠĠĠĠĠĠĠĠĠĠĠĠĠ": 6288,
      "Ġpred": 6289,
      "Ġoffering": 6290,
      "åįģåĪĨ": 6291,
      "èĢĮä¸įæĺ¯": 6292,
      "Thank": 6293,
      "æĽ¾": 6294,
      "Ġelements": 6295,
      "ç²Ĵ": 6296,
      "Ġcourses": 6297,
      "Ġintegrated": 6298,
      "ĠCar": 6299,
      "agraph": 6300,
      "åŁºåĽł": 6301,
      "Ġinstead": 6302,
      "èĦ±": 6303,
      "åı¦ä¸Ģä¸ª": 6304,
      "å¯Ĩçłģ": 6305,
      "Ġallowed": 6306,
      "éĿ¢åĮħ": 6307,
      "çķªèĮĦ": 6308,
      "åĴĮåıĳå±ķ": 6309,
      "å°ģ": 6310,
      "Ġconnection": 6311,
      "åľ¨ä¸Ģä¸ª": 6312,
      "Ġuseful": 6313,
      "è¯Ńåı¥": 6314,
      "åĪĨå¸ĥ": 6315,
      "è¡¨æ¼Ķ": 6316,
      "æľīæĹ¶": 6317,
      "çļĦæĹħ": 6318,
      "çļĦæĢ»": 6319,
      "Ġfashion": 6320,
      "èĭ¦": 6321,
      "è¦ģæ³¨æĦı": 6322,
      "çĶŁç´ł": 6323,
      "Ġnutri": 6324,
      "èĩªè¡Į": 6325,
      "çļĦçĭ": 6326,
      "çĲĨè§£åĴĮ": 6327,
      "Ġcat": 6328,
      "æľºåĻ¨åŃ¦ä¹ł": 6329,
      "Ġexhib": 6330,
      "åĴĮæľįåĬ¡": 6331,
      "frac": 6332,
      "epend": 6333,
      "Ġimpacted": 6334,
      "Ġut": 6335,
      "æķ°ç»Ħ": 6336,
      "ĠWorld": 6337,
      "Ġanswer": 6338,
      "erse": 6339,
      "éª¨": 6340,
      "Ġartists": 6341,
      "åŃ©åŃĲçļĦ": 6342,
      "ä»Ķ": 6343,
      "çĻ»": 6344,
      "ĠAre": 6345,
      "Ġcool": 6346,
      "Ġcognitive": 6347,
      "åĲĦä¸ª": 6348,
      "like": 6349,
      "å©´åĦ¿": 6350,
      "åĪĹåĩº": 6351,
      "å¹»": 6352,
      "ront": 6353,
      "å®¶éķ¿": 6354,
      "ç¼ºä¹ı": 6355,
      "Ġcyber": 6356,
      "ilt": 6357,
      "Ġcapture": 6358,
      "åĹ": 6359,
      "åľ¨äºİ": 6360,
      "Ġthreats": 6361,
      "åĴĮç¤¾ä¼ļ": 6362,
      "Ġcells": 6363,
      "æ¸ħåįķ": 6364,
      "ĠVis": 6365,
      "æİī": 6366,
      "Ġhol": 6367,
      "åŃĲçļĦ": 6368,
      "Ch": 6369,
      "èĿ": 6370,
      "Ġsaid": 6371,
      "Ġdream": 6372,
      "unch": 6373,
      "une": 6374,
      "ĠDon": 6375,
      "å®¶äºº": 6376,
      "ç±į": 6377,
      "æĦŁåĴĮ": 6378,
      "Ġexperienced": 6379,
      "çļĦéĩįè¦ģæĢ§": 6380,
      "å¼ĥ": 6381,
      "ump": 6382,
      "éĺĲ": 6383,
      "Ġhabitat": 6384,
      "è¢ĭ": 6385,
      "Ġjo": 6386,
      "ç®Ģæ´ģ": 6387,
      "Ġbur": 6388,
      "Ġvisitors": 6389,
      "éĽħ": 6390,
      "çļĦçŁ¥": 6391,
      "Ġentire": 6392,
      "è®²è¿°": 6393,
      "äºĨä¸ĢäºĽ": 6394,
      "åįıä½ľ": 6395,
      "ĠBus": 6396,
      "å°¾": 6397,
      "çļĦæķĻ": 6398,
      "olog": 6399,
      "Ġsigns": 6400,
      "Ġspeaker": 6401,
      "çļĦéŁ³ä¹Ĳ": 6402,
      "Ġnovel": 6403,
      "å±ħæ°ĳ": 6404,
      "çļĦåıĺåĮĸ": 6405,
      "å°½éĩı": 6406,
      "Ġspirit": 6407,
      "å®Įç¾İ": 6408,
      "è´·": 6409,
      "å¿ħè¦ģçļĦ": 6410,
      "ief": 6411,
      "ç¤ºä¾ĭ": 6412,
      "Ġdiv": 6413,
      "æķ´æķ°": 6414,
      "Ġeconomy": 6415,
      "Ġethically": 6416,
      "éĻĪ": 6417,
      "Ġschools": 6418,
      "Ġnetworks": 6419
    },
    "merges": [
      [
        "Ġ",
        "t"
      ],
      [
        "Ġ",
        "a"
      ],
      [
        "i",
        "n"
      ],
      [
        "h",
        "e"
      ],
      [
        "r",
        "e"
      ],
      [
        "ï",
        "¼"
      ],
      [
        "ä",
        "¸"
      ],
      [
        "o",
        "n"
      ],
      [
        "a",
        "t"
      ],
      [
        "ç",
        "ļ"
      ],
      [
        "çļ",
        "Ħ"
      ],
      [
        "ï¼",
        "Į"
      ],
      [
        "Ġ",
        "s"
      ],
      [
        "Ġ",
        "c"
      ],
      [
        "n",
        "d"
      ],
      [
        "ã",
        "Ģ"
      ],
      [
        "e",
        "r"
      ],
      [
        "Ġt",
        "he"
      ],
      [
        "e",
        "s"
      ],
      [
        "e",
        "n"
      ],
      [
        "o",
        "r"
      ],
      [
        "a",
        "n"
      ],
      [
        "Ġa",
        "nd"
      ],
      [
        "in",
        "g"
      ],
      [
        "Ġ",
        "p"
      ],
      [
        "i",
        "t"
      ],
      [
        "a",
        "l"
      ],
      [
        "ãĢ",
        "Ĥ"
      ],
      [
        "Ġ",
        "o"
      ],
      [
        "Ġ",
        "w"
      ],
      [
        "ä",
        "»"
      ],
      [
        "Ġt",
        "o"
      ],
      [
        "i",
        "s"
      ],
      [
        "o",
        "u"
      ],
      [
        "Ġ",
        "m"
      ],
      [
        "ä",
        "º"
      ],
      [
        "Ġ",
        "in"
      ],
      [
        "Ġ",
        "f"
      ],
      [
        "Ġ",
        "b"
      ],
      [
        "e",
        "d"
      ],
      [
        "i",
        "on"
      ],
      [
        "å",
        "ı"
      ],
      [
        "i",
        "c"
      ],
      [
        "Ġ",
        "d"
      ],
      [
        "Ġo",
        "f"
      ],
      [
        "l",
        "e"
      ],
      [
        "a",
        "r"
      ],
      [
        "r",
        "o"
      ],
      [
        "Ġ",
        "Ġ"
      ],
      [
        "å",
        "ħ"
      ],
      [
        "en",
        "t"
      ],
      [
        "æ",
        "ľ"
      ],
      [
        "Ġ",
        "e"
      ],
      [
        "å",
        "Ĵ"
      ],
      [
        "è",
        "¿"
      ],
      [
        "ä",
        "½"
      ],
      [
        "åĴ",
        "Į"
      ],
      [
        "æ",
        "Ī"
      ],
      [
        "å",
        "®"
      ],
      [
        "å",
        "Ī"
      ],
      [
        "v",
        "e"
      ],
      [
        "u",
        "s"
      ],
      [
        "Ġ",
        "re"
      ],
      [
        "Ġ",
        "h"
      ],
      [
        "Ġt",
        "h"
      ],
      [
        "a",
        "s"
      ],
      [
        "c",
        "t"
      ],
      [
        "ç",
        "Ķ"
      ],
      [
        "o",
        "m"
      ],
      [
        "å",
        "ľ"
      ],
      [
        "å",
        "¤"
      ],
      [
        "æ",
        "ĺ"
      ],
      [
        "å",
        "Ĭ"
      ],
      [
        "å",
        "Ĳ"
      ],
      [
        "ä¸",
        "Ģ"
      ],
      [
        "i",
        "m"
      ],
      [
        "è",
        "¯"
      ],
      [
        "æ",
        "ĸ"
      ],
      [
        "at",
        "ion"
      ],
      [
        "l",
        "o"
      ],
      [
        "ç",
        "»"
      ],
      [
        "Ġb",
        "e"
      ],
      [
        "ãĢ",
        "ģ"
      ],
      [
        "i",
        "d"
      ],
      [
        "Ġc",
        "an"
      ],
      [
        "i",
        "l"
      ],
      [
        "æĺ",
        "¯"
      ],
      [
        "ä",
        "¹"
      ],
      [
        "è",
        "®"
      ],
      [
        "Ġ",
        "A"
      ],
      [
        "Ġth",
        "at"
      ],
      [
        "Ġ",
        "T"
      ],
      [
        "ä»",
        "¥"
      ],
      [
        "c",
        "h"
      ],
      [
        "Ġ",
        "y"
      ],
      [
        "c",
        "e"
      ],
      [
        "ï¼",
        "ļ"
      ],
      [
        "o",
        "t"
      ],
      [
        "er",
        "s"
      ],
      [
        "Ġ",
        "n"
      ],
      [
        "é",
        "Ģ"
      ],
      [
        "r",
        "a"
      ],
      [
        "å",
        "°"
      ],
      [
        "Ġ",
        "g"
      ],
      [
        "Ġy",
        "ou"
      ],
      [
        "å",
        "Ń"
      ],
      [
        "Ġp",
        "ro"
      ],
      [
        "e",
        "t"
      ],
      [
        "å",
        "º"
      ],
      [
        "åľ",
        "¨"
      ],
      [
        "l",
        "y"
      ],
      [
        "Ġ",
        "is"
      ],
      [
        "ä¸",
        "ª"
      ],
      [
        "Ġ",
        "l"
      ],
      [
        "u",
        "r"
      ],
      [
        "Ġf",
        "or"
      ],
      [
        "åı",
        "¯"
      ],
      [
        "é",
        "ĩ"
      ],
      [
        "s",
        "t"
      ],
      [
        "çļĦ",
        "æ"
      ],
      [
        "u",
        "t"
      ],
      [
        "Ġ",
        "he"
      ],
      [
        "i",
        "f"
      ],
      [
        "ĥ",
        "½"
      ],
      [
        "ä",
        "¼"
      ],
      [
        "Ġ",
        "I"
      ],
      [
        "è",
        "¡"
      ],
      [
        "i",
        "r"
      ],
      [
        "it",
        "h"
      ],
      [
        "å",
        "¹"
      ],
      [
        "Ġa",
        "re"
      ],
      [
        "i",
        "g"
      ],
      [
        "Ġs",
        "t"
      ],
      [
        "e",
        "l"
      ],
      [
        "o",
        "l"
      ],
      [
        "å",
        "¸"
      ],
      [
        "u",
        "l"
      ],
      [
        "æ",
        "Ŀ"
      ],
      [
        "æĪ",
        "ĳ"
      ],
      [
        "Ġ",
        "on"
      ],
      [
        "è",
        "¦"
      ],
      [
        "æľ",
        "ī"
      ],
      [
        "æ",
        "Ĺ"
      ],
      [
        "å",
        "¯"
      ],
      [
        "è",
        "§"
      ],
      [
        "è¦",
        "ģ"
      ],
      [
        "Ġ",
        "us"
      ],
      [
        "a",
        "y"
      ],
      [
        "æ",
        "ķ"
      ],
      [
        "ç",
        "ī"
      ],
      [
        "o",
        "w"
      ],
      [
        "m",
        "ent"
      ],
      [
        "çĶ",
        "¨"
      ],
      [
        "es",
        "s"
      ],
      [
        "ä¸",
        "Ń"
      ],
      [
        "ä»",
        "¬"
      ],
      [
        "äº",
        "º"
      ],
      [
        "å",
        "ĩ"
      ],
      [
        "Ġe",
        "x"
      ],
      [
        "ĠĠ",
        "ĠĠ"
      ],
      [
        "å",
        "Ľ"
      ],
      [
        "å",
        "Į"
      ],
      [
        "å",
        "¼"
      ],
      [
        "Ġc",
        "on"
      ],
      [
        "s",
        "e"
      ],
      [
        "è",
        "ĥ½"
      ],
      [
        "ç",
        "İ"
      ],
      [
        "Ġa",
        "n"
      ],
      [
        "Ġw",
        "ith"
      ],
      [
        "ä¸",
        "º"
      ],
      [
        "at",
        "e"
      ],
      [
        "i",
        "v"
      ],
      [
        "a",
        "m"
      ],
      [
        "Ġa",
        "s"
      ],
      [
        "u",
        "re"
      ],
      [
        "è¿",
        "Ļ"
      ],
      [
        "å",
        "Ĩ"
      ],
      [
        "ç",
        "Ń"
      ],
      [
        "Ġ",
        "or"
      ],
      [
        "å",
        "·"
      ],
      [
        "Ġa",
        "l"
      ],
      [
        "i",
        "es"
      ],
      [
        "ç",
        "§"
      ],
      [
        "Ġ",
        "im"
      ],
      [
        "æ",
        "Ģ"
      ],
      [
        "v",
        "er"
      ],
      [
        "a",
        "b"
      ],
      [
        "äº",
        "Ĩ"
      ],
      [
        "Ġs",
        "u"
      ],
      [
        "Ġd",
        "e"
      ],
      [
        "g",
        "e"
      ],
      [
        "t",
        "h"
      ],
      [
        "åı¯",
        "ä»¥"
      ],
      [
        "è",
        "Ģ"
      ],
      [
        "ä¸",
        "į"
      ],
      [
        "å",
        "¾"
      ],
      [
        "ĠA",
        "I"
      ],
      [
        "Ġ",
        "en"
      ],
      [
        "é",
        "Ĺ"
      ],
      [
        "æ",
        "ī"
      ],
      [
        "a",
        "k"
      ],
      [
        "i",
        "ve"
      ],
      [
        "Ġm",
        "o"
      ],
      [
        "å",
        "¥"
      ],
      [
        "é",
        "Ŀ"
      ],
      [
        "ç",
        "Ľ"
      ],
      [
        "it",
        "y"
      ],
      [
        "ä",
        "¿"
      ],
      [
        "u",
        "n"
      ],
      [
        "è",
        "´"
      ],
      [
        "å",
        "į"
      ],
      [
        "Ġ",
        "it"
      ],
      [
        "Ġim",
        "p"
      ],
      [
        "e",
        "ct"
      ],
      [
        "æ",
        "ł"
      ],
      [
        "å",
        "½"
      ],
      [
        "è",
        "ĩ"
      ],
      [
        "é",
        "¢"
      ],
      [
        "å",
        "ĵ"
      ],
      [
        "æ",
        "³"
      ],
      [
        "or",
        "t"
      ],
      [
        "a",
        "d"
      ],
      [
        "æ",
        "ŀ"
      ],
      [
        "e",
        "m"
      ],
      [
        "Ġc",
        "om"
      ],
      [
        "å",
        "¦"
      ],
      [
        "he",
        "r"
      ],
      [
        "e",
        "re"
      ],
      [
        "Ġ",
        "S"
      ],
      [
        "i",
        "al"
      ],
      [
        "Ġ",
        "C"
      ],
      [
        "ĠT",
        "he"
      ],
      [
        "ç",
        "Ĳ"
      ],
      [
        "çĶ",
        "Ł"
      ],
      [
        "æ",
        "Ħ"
      ],
      [
        "p",
        "p"
      ],
      [
        "æ",
        "Ń"
      ],
      [
        "æĸ",
        "¹"
      ],
      [
        "q",
        "u"
      ],
      [
        "Ġw",
        "h"
      ],
      [
        "å¦",
        "Ĥ"
      ],
      [
        "é",
        "ľ"
      ],
      [
        "an",
        "t"
      ],
      [
        "Ġ",
        "le"
      ],
      [
        "Ġ",
        "v"
      ],
      [
        "æ",
        "ĭ"
      ],
      [
        "æ",
        "Ĭ"
      ],
      [
        "us",
        "t"
      ],
      [
        "æĹ",
        "¶"
      ],
      [
        "çŃ",
        "ī"
      ],
      [
        "å",
        "ĳ"
      ],
      [
        "å¯",
        "¹"
      ],
      [
        "t",
        "er"
      ],
      [
        "l",
        "d"
      ],
      [
        "è¡",
        "Į"
      ],
      [
        "Ġc",
        "h"
      ],
      [
        "u",
        "d"
      ],
      [
        "éľ",
        "Ģ"
      ],
      [
        "æ",
        "°"
      ],
      [
        "æĪ",
        "Ĳ"
      ],
      [
        "Ġ",
        "|"
      ],
      [
        "a",
        "c"
      ],
      [
        "a",
        "in"
      ],
      [
        "i",
        "z"
      ],
      [
        "æ",
        "ı"
      ],
      [
        "ion",
        "s"
      ],
      [
        "Ġh",
        "a"
      ],
      [
        "æ",
        "Ľ"
      ],
      [
        "-",
        "-"
      ],
      [
        "æĿ",
        "¥"
      ],
      [
        "om",
        "e"
      ],
      [
        "å",
        "¿"
      ],
      [
        "'",
        "s"
      ],
      [
        "Ġn",
        "e"
      ],
      [
        "es",
        "t"
      ],
      [
        "ä",
        "¾"
      ],
      [
        "u",
        "m"
      ],
      [
        "åĪ",
        "°"
      ],
      [
        "åľ",
        "°"
      ],
      [
        "is",
        "t"
      ],
      [
        "â",
        "Ģ"
      ],
      [
        "çī",
        "©"
      ],
      [
        "ä¸Ģ",
        "ä¸ª"
      ],
      [
        "l",
        "p"
      ],
      [
        "æ",
        "İ"
      ],
      [
        "èĩ",
        "ª"
      ],
      [
        "Ġhe",
        "lp"
      ],
      [
        "Ġthe",
        "ir"
      ],
      [
        "æ",
        "Ķ"
      ],
      [
        "ä½",
        "ľ"
      ],
      [
        "ä¼",
        "ļ"
      ],
      [
        "æ",
        "Į"
      ],
      [
        "æĪĳ",
        "ä»¬"
      ],
      [
        "n",
        "t"
      ],
      [
        "äº",
        "İ"
      ],
      [
        "åĪ",
        "Ĩ"
      ],
      [
        "re",
        "s"
      ],
      [
        "p",
        "e"
      ],
      [
        "åĩ",
        "º"
      ],
      [
        "id",
        "e"
      ],
      [
        "æ",
        "ĥ"
      ],
      [
        "Ġ",
        "H"
      ],
      [
        "è",
        "¾"
      ],
      [
        "Ġ",
        "M"
      ],
      [
        "f",
        "f"
      ],
      [
        "æ",
        "¯"
      ],
      [
        "o",
        "d"
      ],
      [
        "ic",
        "al"
      ],
      [
        "Ġw",
        "or"
      ],
      [
        "ä¸",
        "Ĭ"
      ],
      [
        "a",
        "re"
      ],
      [
        "æĽ",
        "´"
      ],
      [
        "Ġyou",
        "r"
      ],
      [
        "ä¸",
        "ĭ"
      ],
      [
        "è",
        "µ"
      ],
      [
        "ation",
        "s"
      ],
      [
        "æķ",
        "°"
      ],
      [
        "Ġt",
        "e"
      ],
      [
        "å",
        "İ"
      ],
      [
        "çĲ",
        "Ĩ"
      ],
      [
        "ĠT",
        "h"
      ],
      [
        "è¿",
        "ĩ"
      ],
      [
        "å¹",
        "¶"
      ],
      [
        "d",
        "u"
      ],
      [
        "éĿ",
        "¢"
      ],
      [
        "Ġa",
        "d"
      ],
      [
        "il",
        "l"
      ],
      [
        "æ",
        "µ"
      ],
      [
        "å¥",
        "½"
      ],
      [
        "o",
        "c"
      ],
      [
        "a",
        "ct"
      ],
      [
        "éľĢ",
        "è¦ģ"
      ],
      [
        "ä»",
        "ĸ"
      ],
      [
        "å",
        "±"
      ],
      [
        "Ġ",
        "r"
      ],
      [
        "Ġmo",
        "re"
      ],
      [
        "åŃ",
        "¦"
      ],
      [
        "ç",
        "®"
      ],
      [
        "ig",
        "h"
      ],
      [
        "äº",
        "Ľ"
      ],
      [
        "Ġ",
        "B"
      ],
      [
        "åĬ",
        "¨"
      ],
      [
        "åĵ",
        "ģ"
      ],
      [
        "è",
        "ī"
      ],
      [
        "p",
        "le"
      ],
      [
        "Ġin",
        "c"
      ],
      [
        "åĲ",
        "Į"
      ],
      [
        "Ġex",
        "p"
      ],
      [
        "ou",
        "ld"
      ],
      [
        "ä½",
        "ł"
      ],
      [
        "æ",
        "į"
      ],
      [
        "æı",
        "Ĳ"
      ],
      [
        "å¤",
        "§"
      ],
      [
        "çİ",
        "°"
      ],
      [
        "p",
        "t"
      ],
      [
        "Ġ",
        "P"
      ],
      [
        "al",
        "l"
      ],
      [
        "åĬ",
        "ł"
      ],
      [
        "ç§",
        "į"
      ],
      [
        "Ġs",
        "e"
      ],
      [
        "åĬ",
        "Ľ"
      ],
      [
        "ou",
        "t"
      ],
      [
        "Ġha",
        "ve"
      ],
      [
        "ç",
        "º"
      ],
      [
        "ä½",
        "ĵ"
      ],
      [
        "Ġpro",
        "v"
      ],
      [
        "åĮ",
        "ĸ"
      ],
      [
        "å¤",
        "ļ"
      ],
      [
        "å®",
        "ļ"
      ],
      [
        "Ġus",
        "ed"
      ],
      [
        "éĢ",
        "ļ"
      ],
      [
        "c",
        "c"
      ],
      [
        "è¿",
        "Ľ"
      ],
      [
        "æ",
        "´"
      ],
      [
        "Ġs",
        "h"
      ],
      [
        "Ġa",
        "b"
      ],
      [
        "o",
        "s"
      ],
      [
        "Ġre",
        "s"
      ],
      [
        "ĠTh",
        "is"
      ],
      [
        "ç",
        "¨"
      ],
      [
        "æĢ",
        "§"
      ],
      [
        "a",
        "ge"
      ],
      [
        "r",
        "i"
      ],
      [
        "æ",
        "¸"
      ],
      [
        "ab",
        "le"
      ],
      [
        "åŃ",
        "Ĳ"
      ],
      [
        "Ġb",
        "y"
      ],
      [
        "åı",
        "ĳ"
      ],
      [
        "éĩ",
        "ı"
      ],
      [
        "åº",
        "Ķ"
      ],
      [
        "Ġ",
        "lo"
      ],
      [
        "ä½",
        "¿"
      ],
      [
        "åħ",
        "¶"
      ],
      [
        "é",
        "«"
      ],
      [
        "é",
        "Ļ"
      ],
      [
        "é«",
        "ĺ"
      ],
      [
        "åº",
        "¦"
      ],
      [
        "è§",
        "£"
      ],
      [
        "é",
        "£"
      ],
      [
        "å°",
        "Ĩ"
      ],
      [
        "æ³",
        "ķ"
      ],
      [
        "a",
        "nd"
      ],
      [
        "ä¿",
        "Ŀ"
      ],
      [
        "an",
        "s"
      ],
      [
        "f",
        "or"
      ],
      [
        "ro",
        "m"
      ],
      [
        "re",
        "at"
      ],
      [
        "Ġp",
        "l"
      ],
      [
        "çļĦ",
        "ç"
      ],
      [
        "å¸",
        "¸"
      ],
      [
        "è",
        "½"
      ],
      [
        "Ġw",
        "e"
      ],
      [
        "è¡",
        "¨"
      ],
      [
        "ak",
        "e"
      ],
      [
        "æĪ",
        "ĸ"
      ],
      [
        "é¢",
        "ĺ"
      ],
      [
        "å",
        "Ł"
      ],
      [
        "Ġm",
        "e"
      ],
      [
        "æĸ",
        "ĩ"
      ],
      [
        "t",
        "her"
      ],
      [
        "k",
        "e"
      ],
      [
        "å®",
        "¶"
      ],
      [
        "åĲ",
        "Ī"
      ],
      [
        "æľ",
        "Ģ"
      ],
      [
        "in",
        "e"
      ],
      [
        "Ġs",
        "ome"
      ],
      [
        "ç",
        "±"
      ],
      [
        "éĩ",
        "į"
      ],
      [
        "æŀ",
        "ľ"
      ],
      [
        "Ġ",
        "W"
      ],
      [
        "Ġ",
        "E"
      ],
      [
        "é",
        "ĺ"
      ],
      [
        "ou",
        "r"
      ],
      [
        "r",
        "ou"
      ],
      [
        "ç",
        "Ĥ"
      ],
      [
        "æ",
        "±"
      ],
      [
        "åħ",
        "³"
      ],
      [
        "Ġin",
        "t"
      ],
      [
        "an",
        "ce"
      ],
      [
        "ä¹",
        "Ł"
      ],
      [
        "é",
        "ģ"
      ],
      [
        "ĠĠ",
        "Ġ"
      ],
      [
        "å®",
        "ĥ"
      ],
      [
        "a",
        "g"
      ],
      [
        "æ",
        "¬"
      ],
      [
        "0",
        "0"
      ],
      [
        "è",
        "°"
      ],
      [
        "ul",
        "t"
      ],
      [
        "y",
        "st"
      ],
      [
        "éĹ",
        "´"
      ],
      [
        "ç",
        "³"
      ],
      [
        "Ġt",
        "r"
      ],
      [
        "p",
        "l"
      ],
      [
        "ar",
        "t"
      ],
      [
        "æĦ",
        "Ł"
      ],
      [
        "æ",
        "Ĥ"
      ],
      [
        "at",
        "a"
      ],
      [
        "Ġ",
        "F"
      ],
      [
        "for",
        "m"
      ],
      [
        "è®",
        "¡"
      ],
      [
        "Ġf",
        "rom"
      ],
      [
        "Ġ",
        "D"
      ],
      [
        "éĹ",
        "®"
      ],
      [
        "igh",
        "t"
      ],
      [
        "c",
        "es"
      ],
      [
        "æį",
        "®"
      ],
      [
        "lo",
        "p"
      ],
      [
        "ä¹",
        "ĭ"
      ],
      [
        "Ġf",
        "e"
      ],
      [
        "å",
        "ģ"
      ],
      [
        "ve",
        "lop"
      ],
      [
        "Ġ",
        "1"
      ],
      [
        "åĽ",
        "ł"
      ],
      [
        "k",
        "s"
      ],
      [
        "æ",
        "²"
      ],
      [
        "Ġ",
        "u"
      ],
      [
        "å°",
        "ı"
      ],
      [
        "yst",
        "em"
      ],
      [
        "Ġd",
        "is"
      ],
      [
        "Ġ",
        "R"
      ],
      [
        "g",
        "y"
      ],
      [
        "å·",
        "¥"
      ],
      [
        "ç¨",
        "ĭ"
      ],
      [
        "å",
        "¢"
      ],
      [
        "en",
        "ce"
      ],
      [
        "è",
        "Ĥ"
      ],
      [
        "ç",
        "¡"
      ],
      [
        "Ġt",
        "ra"
      ],
      [
        "å",
        "»"
      ],
      [
        "åħ",
        "¥"
      ],
      [
        "ig",
        "n"
      ],
      [
        "al",
        "th"
      ],
      [
        "Ġsu",
        "ch"
      ],
      [
        "a",
        "ch"
      ],
      [
        "æ",
        "Ļ"
      ],
      [
        "ar",
        "n"
      ],
      [
        "Ġd",
        "ata"
      ],
      [
        "è",
        "¶"
      ],
      [
        "å®",
        "ŀ"
      ],
      [
        "s",
        "o"
      ],
      [
        "Ġde",
        "velop"
      ],
      [
        "ç",
        "¤"
      ],
      [
        "Ġa",
        "cc"
      ],
      [
        "as",
        "t"
      ],
      [
        "èĢ",
        "Į"
      ],
      [
        "Ġ",
        "\""
      ],
      [
        "Ġo",
        "ther"
      ],
      [
        "å»",
        "º"
      ],
      [
        "Ġe",
        "ff"
      ],
      [
        "ç",
        "«"
      ],
      [
        "Ġm",
        "an"
      ],
      [
        "åħ",
        "¬"
      ],
      [
        "å",
        "Ģ"
      ],
      [
        "ç",
        "Ħ"
      ],
      [
        "m",
        "s"
      ],
      [
        "å¼",
        "ı"
      ],
      [
        "èī",
        "²"
      ],
      [
        "å¾",
        "Ĺ"
      ],
      [
        "if",
        "ic"
      ],
      [
        "Ġ",
        "j"
      ],
      [
        "Ġ",
        "ro"
      ],
      [
        "Ġh",
        "as"
      ],
      [
        "ch",
        "n"
      ],
      [
        "o",
        "lo"
      ],
      [
        "åĪ",
        "¶"
      ],
      [
        "è",
        "Ĭ"
      ],
      [
        "ä½¿",
        "çĶ¨"
      ],
      [
        "ou",
        "s"
      ],
      [
        "u",
        "al"
      ],
      [
        "Ġa",
        "t"
      ],
      [
        "Ġe",
        "m"
      ],
      [
        "el",
        "l"
      ],
      [
        "Ġs",
        "ystem"
      ],
      [
        "Ġhe",
        "alth"
      ],
      [
        "it",
        "ies"
      ],
      [
        "Ġex",
        "am"
      ],
      [
        "i",
        "b"
      ],
      [
        "é",
        "Ķ"
      ],
      [
        "Ġab",
        "out"
      ],
      [
        "äº",
        "§"
      ],
      [
        "åĲ",
        "İ"
      ],
      [
        "æĦ",
        "ı"
      ],
      [
        "ç±",
        "»"
      ],
      [
        "Ġp",
        "re"
      ],
      [
        "æĤ",
        "¨"
      ],
      [
        "Ġal",
        "so"
      ],
      [
        "ent",
        "s"
      ],
      [
        "Ġin",
        "d"
      ],
      [
        "in",
        "d"
      ],
      [
        "éĢ",
        "Ĥ"
      ],
      [
        "Ġte",
        "chn"
      ],
      [
        "res",
        "s"
      ],
      [
        "æĥ",
        "ħ"
      ],
      [
        "éĹ®",
        "é¢ĺ"
      ],
      [
        "Ġus",
        "e"
      ],
      [
        "ï¼",
        "Ł"
      ],
      [
        "Ġinc",
        "l"
      ],
      [
        "Ġs",
        "pe"
      ],
      [
        "ic",
        "h"
      ],
      [
        "p",
        "s"
      ],
      [
        "æľ",
        "º"
      ],
      [
        "Ġthe",
        "y"
      ],
      [
        "i",
        "e"
      ],
      [
        "Ġh",
        "ow"
      ],
      [
        "Ġwor",
        "k"
      ],
      [
        "ä¸",
        "ļ"
      ],
      [
        "ç",
        "´"
      ],
      [
        "Ġimp",
        "ro"
      ],
      [
        "Ġle",
        "arn"
      ],
      [
        "æĸ",
        "°"
      ],
      [
        "çĤ",
        "¹"
      ],
      [
        "Ġcon",
        "t"
      ],
      [
        "ar",
        "d"
      ],
      [
        "çĦ",
        "¶"
      ],
      [
        "æľ",
        "¬"
      ],
      [
        "ç³",
        "»"
      ],
      [
        "ç¡",
        "®"
      ],
      [
        "è®",
        "¾"
      ],
      [
        "åħ",
        "·"
      ],
      [
        "éĢ",
        "ī"
      ],
      [
        "èĢ",
        "ħ"
      ],
      [
        "é",
        "ħ"
      ],
      [
        "g",
        "h"
      ],
      [
        "_",
        "_"
      ],
      [
        "Ġn",
        "ot"
      ],
      [
        "ç",
        "ľ"
      ],
      [
        "çĽ",
        "¸"
      ],
      [
        "Ġprov",
        "ide"
      ],
      [
        "å",
        "ī"
      ],
      [
        "ion",
        "al"
      ],
      [
        "Ġen",
        "s"
      ],
      [
        "ä¸",
        "İ"
      ],
      [
        "è´",
        "¨"
      ],
      [
        "ent",
        "ial"
      ],
      [
        "ç»",
        "ı"
      ],
      [
        "å¿",
        "ĥ"
      ],
      [
        "an",
        "g"
      ],
      [
        "æŃ",
        "¤"
      ],
      [
        "e",
        "nd"
      ],
      [
        "Ġp",
        "o"
      ],
      [
        "è¿Ľ",
        "è¡Į"
      ],
      [
        "ic",
        "e"
      ],
      [
        "Ġ",
        "-"
      ],
      [
        "Ġw",
        "ay"
      ],
      [
        "å·",
        "±"
      ],
      [
        "Ġ",
        "2"
      ],
      [
        "im",
        "e"
      ],
      [
        "ç",
        "½"
      ],
      [
        "èĩª",
        "å·±"
      ],
      [
        "Ġ",
        "un"
      ],
      [
        "b",
        "ot"
      ],
      [
        "Ġincl",
        "ud"
      ],
      [
        "at",
        "ed"
      ],
      [
        "æ°",
        "´"
      ],
      [
        "é",
        "ķ"
      ],
      [
        "æĮ",
        "ģ"
      ],
      [
        "ä»",
        "£"
      ],
      [
        "é",
        "¡"
      ],
      [
        "æī",
        "Ģ"
      ],
      [
        "ç",
        "Ŀ"
      ],
      [
        "pp",
        "ort"
      ],
      [
        "o",
        "od"
      ],
      [
        "i",
        "ke"
      ],
      [
        "r",
        "u"
      ],
      [
        "Ġcom",
        "m"
      ],
      [
        "Ġ",
        "L"
      ],
      [
        "ä¿",
        "¡"
      ],
      [
        "Ġ",
        "G"
      ],
      [
        "ç",
        "Ł"
      ],
      [
        "çĶ",
        "µ"
      ],
      [
        "Ġw",
        "as"
      ],
      [
        "lo",
        "w"
      ],
      [
        "er",
        "v"
      ],
      [
        "åĮ",
        "ħ"
      ],
      [
        "ĠĠĠĠ",
        "ĠĠĠĠ"
      ],
      [
        "Ġw",
        "he"
      ],
      [
        "d",
        "it"
      ],
      [
        "Ġwh",
        "ich"
      ],
      [
        "Ġcom",
        "p"
      ],
      [
        "é",
        "ª"
      ],
      [
        "o",
        "re"
      ],
      [
        "ç",
        "¾"
      ],
      [
        "Ġ",
        "="
      ],
      [
        "çī",
        "¹"
      ],
      [
        "if",
        "f"
      ],
      [
        "er",
        "t"
      ],
      [
        "æ",
        "ģ"
      ],
      [
        "r",
        "it"
      ],
      [
        "Ġre",
        "c"
      ],
      [
        "åĨ",
        "ħ"
      ],
      [
        "æĺ",
        "İ"
      ],
      [
        "or",
        "s"
      ],
      [
        "Ġp",
        "at"
      ],
      [
        "--",
        "--"
      ],
      [
        "æ",
        "Ł"
      ],
      [
        "Ġa",
        "pp"
      ],
      [
        "n",
        "s"
      ],
      [
        "åĬ",
        "¡"
      ],
      [
        "al",
        "y"
      ],
      [
        "a",
        "ce"
      ],
      [
        "æ´",
        "»"
      ],
      [
        "ä¾",
        "Ľ"
      ],
      [
        "a",
        "v"
      ],
      [
        "ä¸",
        "»"
      ],
      [
        "Ġp",
        "ers"
      ],
      [
        "ç",
        "ĥ"
      ],
      [
        "è¯",
        "¥"
      ],
      [
        "Ġm",
        "y"
      ],
      [
        "ç",
        "©"
      ],
      [
        "er",
        "i"
      ],
      [
        "è®",
        "©"
      ],
      [
        "æĬ",
        "Ģ"
      ],
      [
        "éķ",
        "¿"
      ],
      [
        "ac",
        "k"
      ],
      [
        "Ġ",
        "N"
      ],
      [
        "Ġd",
        "iff"
      ],
      [
        "Ġth",
        "is"
      ],
      [
        "å",
        "Ŀ"
      ],
      [
        "Ġens",
        "ure"
      ],
      [
        "å½",
        "ĵ"
      ],
      [
        "Ġo",
        "ut"
      ],
      [
        "Ġc",
        "l"
      ],
      [
        "Ġ",
        "k"
      ],
      [
        "é",
        "¦"
      ],
      [
        "ou",
        "nt"
      ],
      [
        "çİ",
        "¯"
      ],
      [
        "åĬ",
        "©"
      ],
      [
        "Ġtechn",
        "olo"
      ],
      [
        "Ġthe",
        "se"
      ],
      [
        "f",
        "ul"
      ],
      [
        "é",
        "ļ"
      ],
      [
        "æ",
        "·"
      ],
      [
        "ä¸Ģ",
        "äºĽ"
      ],
      [
        "Ġs",
        "oc"
      ],
      [
        "å¼",
        "Ģ"
      ],
      [
        "å¤",
        "©"
      ],
      [
        "Ġe",
        "v"
      ],
      [
        "Ġre",
        "du"
      ],
      [
        "Ġthe",
        "m"
      ],
      [
        "Ġ",
        "("
      ],
      [
        "é",
        "ĥ½"
      ],
      [
        "æĪ",
        "·"
      ],
      [
        "è",
        "·"
      ],
      [
        "åľ",
        "º"
      ],
      [
        "æ°",
        "Ķ"
      ],
      [
        "Ġ",
        "Y"
      ],
      [
        "è¯",
        "Ń"
      ],
      [
        "éĢļ",
        "è¿ĩ"
      ],
      [
        "å±",
        "ķ"
      ],
      [
        "Ġc",
        "o"
      ],
      [
        "å½",
        "±"
      ],
      [
        "ç",
        "¬"
      ],
      [
        "Ġan",
        "aly"
      ],
      [
        "æ¯",
        "Ķ"
      ],
      [
        "åħ",
        "¨"
      ],
      [
        "Ġimpro",
        "ve"
      ],
      [
        "ç»",
        "ĵ"
      ],
      [
        "å¹",
        "´"
      ],
      [
        "ç",
        "ķ"
      ],
      [
        "çĿ",
        "Ģ"
      ],
      [
        "Ġh",
        "um"
      ],
      [
        "Ġ",
        "qu"
      ],
      [
        "ç®",
        "Ĺ"
      ],
      [
        "Ġ",
        "O"
      ],
      [
        "é£",
        "Ł"
      ],
      [
        "il",
        "ity"
      ],
      [
        "Ġsystem",
        "s"
      ],
      [
        "åı",
        "ĺ"
      ],
      [
        "a",
        "il"
      ],
      [
        "ç",
        "¼"
      ],
      [
        "ç",
        "ł"
      ],
      [
        "è¿Ļ",
        "ä¸ª"
      ],
      [
        "æıĲ",
        "ä¾Ľ"
      ],
      [
        "as",
        "e"
      ],
      [
        "å",
        "ŀ"
      ],
      [
        "ment",
        "s"
      ],
      [
        "Ġp",
        "ot"
      ],
      [
        "Ġan",
        "y"
      ],
      [
        "ä½",
        "Ĩ"
      ],
      [
        "Ġcon",
        "s"
      ],
      [
        "ĠI",
        "t"
      ],
      [
        "æł",
        "¼"
      ],
      [
        "Ġa",
        "r"
      ],
      [
        "æľ",
        "¯"
      ],
      [
        "éĿ",
        "ŀ"
      ],
      [
        "Ġd",
        "o"
      ],
      [
        "Ġm",
        "ay"
      ],
      [
        "æĭ",
        "©"
      ],
      [
        "u",
        "e"
      ],
      [
        "éĢī",
        "æĭ©"
      ],
      [
        "r",
        "y"
      ],
      [
        "é",
        "ĥ"
      ],
      [
        "Ġl",
        "ike"
      ],
      [
        "on",
        "g"
      ],
      [
        "è",
        "ģ"
      ],
      [
        "`",
        "`"
      ],
      [
        "i",
        "le"
      ],
      [
        "æ±",
        "Ĥ"
      ],
      [
        "Ġne",
        "w"
      ],
      [
        "i",
        "ent"
      ],
      [
        "Ġimp",
        "act"
      ],
      [
        "è¿",
        "ĺ"
      ],
      [
        "æ³",
        "¨"
      ],
      [
        "ä¹",
        "Ī"
      ],
      [
        "çĽ",
        "®"
      ],
      [
        "âĢ",
        "ľ"
      ],
      [
        "âĢ",
        "Ŀ"
      ],
      [
        "e",
        "f"
      ],
      [
        "ä¾",
        "ĭ"
      ],
      [
        "Ġpot",
        "ential"
      ],
      [
        "o",
        "k"
      ],
      [
        "åı¯",
        "èĥ½"
      ],
      [
        "Ġtr",
        "ans"
      ],
      [
        "Ġa",
        "ct"
      ],
      [
        "ï¼",
        "ī"
      ],
      [
        "Ġspe",
        "c"
      ],
      [
        "æ",
        "¶"
      ],
      [
        "Ġw",
        "ill"
      ],
      [
        "äº",
        "¤"
      ],
      [
        "iz",
        "e"
      ],
      [
        "ç¾",
        "İ"
      ],
      [
        "å¸",
        "Ĥ"
      ],
      [
        "Ġst",
        "ud"
      ],
      [
        "p",
        "on"
      ],
      [
        "è",
        "º"
      ],
      [
        "ä¸į",
        "åĲĮ"
      ],
      [
        "on",
        "e"
      ],
      [
        "å¾",
        "Ī"
      ],
      [
        "åı",
        "Ĭ"
      ],
      [
        "å¦Ĥ",
        "æŀľ"
      ],
      [
        "çĲ",
        "ĥ"
      ],
      [
        "an",
        "ge"
      ],
      [
        "Ġne",
        "ed"
      ],
      [
        "å¤",
        "ĸ"
      ],
      [
        "et",
        "y"
      ],
      [
        "ak",
        "ing"
      ],
      [
        "è¯",
        "·"
      ],
      [
        "at",
        "er"
      ],
      [
        "Ġpers",
        "on"
      ],
      [
        "id",
        "ent"
      ],
      [
        "Ġs",
        "o"
      ],
      [
        "Ġm",
        "ake"
      ],
      [
        "å¹",
        "³"
      ],
      [
        "å¤",
        "Ł"
      ],
      [
        "èº",
        "«"
      ],
      [
        "ï¼",
        "Ī"
      ],
      [
        "Ġin",
        "form"
      ],
      [
        "æ",
        "¡"
      ],
      [
        "äº",
        "ĭ"
      ],
      [
        "åı",
        "Ĺ"
      ],
      [
        "as",
        "ed"
      ],
      [
        "il",
        "d"
      ],
      [
        "Ġof",
        "f"
      ],
      [
        "Ġthe",
        "re"
      ],
      [
        "c",
        "is"
      ],
      [
        "è",
        "¢"
      ],
      [
        "éĥ",
        "¨"
      ],
      [
        "æ¯",
        "ı"
      ],
      [
        "ra",
        "ct"
      ],
      [
        "as",
        "s"
      ],
      [
        "Ġlearn",
        "ing"
      ],
      [
        "å",
        "ĸ"
      ],
      [
        "å½",
        "¢"
      ],
      [
        "i",
        "re"
      ],
      [
        "ä»",
        "İ"
      ],
      [
        "bot",
        "s"
      ],
      [
        "è",
        "Ļ"
      ],
      [
        "å¸",
        "®"
      ],
      [
        "Ġd",
        "es"
      ],
      [
        "ĠI",
        "n"
      ],
      [
        "c",
        "ess"
      ],
      [
        "Ġp",
        "e"
      ],
      [
        "if",
        "y"
      ],
      [
        "Ġwh",
        "o"
      ],
      [
        "ä¹",
        "ł"
      ],
      [
        "æľ",
        "Ł"
      ],
      [
        "Ġexp",
        "eri"
      ],
      [
        "é",
        "Ĥ"
      ],
      [
        "Ġs",
        "c"
      ],
      [
        "e",
        "p"
      ],
      [
        "ä½",
        "ķ"
      ],
      [
        "Ġt",
        "ime"
      ],
      [
        "éĿŀ",
        "å¸¸"
      ],
      [
        "æĭ",
        "¬"
      ],
      [
        "å",
        "ķ"
      ],
      [
        "ä»¥",
        "ä¸ĭ"
      ],
      [
        "éģ",
        "ĵ"
      ],
      [
        "Ġcomm",
        "un"
      ],
      [
        "Ġc",
        "ould"
      ],
      [
        "a",
        "p"
      ],
      [
        "è",
        "Ĳ"
      ],
      [
        "è°",
        "ĥ"
      ],
      [
        "l",
        "ic"
      ],
      [
        "du",
        "ct"
      ],
      [
        "Ġit",
        "s"
      ],
      [
        "c",
        "y"
      ],
      [
        "è¯",
        "´"
      ],
      [
        "Ġm",
        "ed"
      ],
      [
        "Ġc",
        "ol"
      ],
      [
        "ul",
        "ar"
      ],
      [
        "éĩį",
        "è¦ģ"
      ],
      [
        "Ġs",
        "p"
      ],
      [
        "åĪ",
        "©"
      ],
      [
        "èµ",
        "·"
      ],
      [
        "Ġprov",
        "id"
      ],
      [
        "ic",
        "es"
      ],
      [
        "å",
        "Ļ"
      ],
      [
        "æĸ",
        "Ļ"
      ],
      [
        "Ġimp",
        "ort"
      ],
      [
        "ur",
        "al"
      ],
      [
        "åŃ",
        "Ĺ"
      ],
      [
        "Ġu",
        "nd"
      ],
      [
        "in",
        "t"
      ],
      [
        "Ġo",
        "ver"
      ],
      [
        "åı",
        "¸"
      ],
      [
        "æł",
        "¹"
      ],
      [
        "é",
        "¥"
      ],
      [
        "pl",
        "es"
      ],
      [
        "ä»ĸ",
        "ä»¬"
      ],
      [
        "g",
        "ra"
      ],
      [
        "ur",
        "ing"
      ],
      [
        "n",
        "ow"
      ],
      [
        "åį",
        "ķ"
      ],
      [
        "è¿Ļ",
        "äºĽ"
      ],
      [
        "åī",
        "į"
      ],
      [
        "å®",
        "ī"
      ],
      [
        "Ġp",
        "r"
      ],
      [
        "åĮħ",
        "æĭ¬"
      ],
      [
        "ç»",
        "Ļ"
      ],
      [
        "T",
        "he"
      ],
      [
        "ä½",
        "į"
      ],
      [
        "å",
        "§"
      ],
      [
        "ç´",
        "ł"
      ],
      [
        "åĳ",
        "ĺ"
      ],
      [
        "Ġ",
        "ident"
      ],
      [
        "åŀ",
        "ĭ"
      ],
      [
        "Ġad",
        "d"
      ],
      [
        "å¼",
        "º"
      ],
      [
        "æĺ¯",
        "ä¸Ģ"
      ],
      [
        "i",
        "p"
      ],
      [
        "g",
        "or"
      ],
      [
        "Ġsu",
        "pport"
      ],
      [
        "n",
        "e"
      ],
      [
        "Ġdiff",
        "ere"
      ],
      [
        "åħ",
        "ĥ"
      ],
      [
        "Ġas",
        "s"
      ],
      [
        "åĨ",
        "³"
      ],
      [
        "é",
        "Ľ"
      ],
      [
        "åĲ",
        "į"
      ],
      [
        "Ġg",
        "o"
      ],
      [
        "Ġtechnolo",
        "gy"
      ],
      [
        "æĢ",
        "»"
      ],
      [
        "è®",
        "®"
      ],
      [
        "Ġin",
        "ter"
      ],
      [
        "Ġin",
        "v"
      ],
      [
        "Ġo",
        "ur"
      ],
      [
        "æķ",
        "Ī"
      ],
      [
        "ust",
        "om"
      ],
      [
        "Ġre",
        "l"
      ],
      [
        "if",
        "e"
      ],
      [
        "åĻ",
        "¨"
      ],
      [
        "ing",
        "s"
      ],
      [
        "ä»",
        "·"
      ],
      [
        "Ġp",
        "art"
      ],
      [
        "è¢",
        "«"
      ],
      [
        "æī",
        "ĭ"
      ],
      [
        "ar",
        "y"
      ],
      [
        "Ġres",
        "pon"
      ],
      [
        "Ċ",
        "ĠĠĠ"
      ],
      [
        "å¥½",
        "çļĦ"
      ],
      [
        "at",
        "ive"
      ],
      [
        "å¸®",
        "åĬ©"
      ],
      [
        "ç»",
        "Ł"
      ],
      [
        "æĶ",
        "¾"
      ],
      [
        "ĠH",
        "ere"
      ],
      [
        "ç",
        "ģ"
      ],
      [
        "Ġb",
        "ut"
      ],
      [
        "æģ",
        "¯"
      ],
      [
        "æŃ",
        "£"
      ],
      [
        "ar",
        "k"
      ],
      [
        "åħ¬",
        "åı¸"
      ],
      [
        "or",
        "y"
      ],
      [
        "å¢",
        "ĥ"
      ],
      [
        "le",
        "ct"
      ],
      [
        "é",
        "Ł"
      ],
      [
        "æĥ",
        "³"
      ],
      [
        "é£",
        "İ"
      ],
      [
        "at",
        "ing"
      ],
      [
        "Ġa",
        "m"
      ],
      [
        "it",
        "s"
      ],
      [
        "æ",
        "»"
      ],
      [
        "gor",
        "ith"
      ],
      [
        "åĵ",
        "į"
      ],
      [
        "ure",
        "s"
      ],
      [
        "Ġeff",
        "ect"
      ],
      [
        "Ġsh",
        "ould"
      ],
      [
        "Ġp",
        "er"
      ],
      [
        "è",
        "±"
      ],
      [
        "ç",
        "²"
      ],
      [
        "ic",
        "t"
      ],
      [
        "Ġal",
        "gorith"
      ],
      [
        "u",
        "c"
      ],
      [
        "rou",
        "gh"
      ],
      [
        "ä»",
        "»"
      ],
      [
        "ä»",
        "¶"
      ],
      [
        "Ġbe",
        "t"
      ],
      [
        "i",
        "a"
      ],
      [
        "Ġanaly",
        "z"
      ],
      [
        "æł¹",
        "æį®"
      ],
      [
        "iz",
        "ed"
      ],
      [
        "æµ",
        "ģ"
      ],
      [
        "è§",
        "Ĥ"
      ],
      [
        "è",
        "£"
      ],
      [
        "æł",
        "ĩ"
      ],
      [
        "ir",
        "on"
      ],
      [
        "Ġc",
        "ustom"
      ],
      [
        "Ġre",
        "g"
      ],
      [
        "Ġperson",
        "al"
      ],
      [
        "èĥ½",
        "å¤Ł"
      ],
      [
        "ic",
        "s"
      ],
      [
        "iv",
        "id"
      ],
      [
        "ç",
        "Ī"
      ],
      [
        "èµ",
        "Ħ"
      ],
      [
        "æŃ",
        "¥"
      ],
      [
        "å®",
        "¹"
      ],
      [
        "åĪ",
        "Ľ"
      ],
      [
        "è",
        "Ī"
      ],
      [
        "ä¹",
        "Ĳ"
      ],
      [
        "å¯",
        "¼"
      ],
      [
        "g",
        "an"
      ],
      [
        "èĬ",
        "Ĥ"
      ],
      [
        "Ġal",
        "l"
      ],
      [
        "en",
        "s"
      ],
      [
        "am",
        "e"
      ],
      [
        "n",
        "ess"
      ],
      [
        "Ġu",
        "p"
      ],
      [
        "Ġ",
        "U"
      ],
      [
        "èĢ",
        "ĥ"
      ],
      [
        "el",
        "f"
      ],
      [
        "åĢ",
        "¼"
      ],
      [
        "å°",
        "ĳ"
      ],
      [
        "æľ",
        "į"
      ],
      [
        "ar",
        "i"
      ],
      [
        "th",
        "ical"
      ],
      [
        "v",
        "iron"
      ],
      [
        "è",
        "ĥ"
      ],
      [
        "or",
        "d"
      ],
      [
        "Ġs",
        "ign"
      ],
      [
        "éĩ",
        "Į"
      ],
      [
        "ou",
        "nd"
      ],
      [
        "o",
        "ple"
      ],
      [
        "åŁ",
        "º"
      ],
      [
        "Ġinform",
        "ation"
      ],
      [
        "Ġident",
        "ify"
      ],
      [
        "åĽ",
        "ŀ"
      ],
      [
        "Ġc",
        "re"
      ],
      [
        "éŁ",
        "³"
      ],
      [
        "ib",
        "le"
      ],
      [
        "u",
        "b"
      ],
      [
        "è¿",
        "Ĳ"
      ],
      [
        "Ġle",
        "ad"
      ],
      [
        "æ¸",
        "¸"
      ],
      [
        "æ¬",
        "¡"
      ],
      [
        "åĨ",
        "Ļ"
      ],
      [
        "éĤ",
        "£"
      ],
      [
        "g",
        "et"
      ],
      [
        "è",
        "į"
      ],
      [
        "Ġexam",
        "ple"
      ],
      [
        "ä¼",
        "ĺ"
      ],
      [
        "å½±",
        "åĵį"
      ],
      [
        "is",
        "h"
      ],
      [
        "x",
        "t"
      ],
      [
        "æ",
        "º"
      ],
      [
        "éª",
        "Į"
      ],
      [
        "o",
        "b"
      ],
      [
        "å®",
        "¢"
      ],
      [
        "å¤",
        "ĩ"
      ],
      [
        "åģ",
        "¥"
      ],
      [
        "è½",
        "¦"
      ],
      [
        "ç¤",
        "¾"
      ],
      [
        "ivid",
        "ual"
      ],
      [
        "ere",
        "d"
      ],
      [
        "l",
        "es"
      ],
      [
        "Ġen",
        "viron"
      ],
      [
        "Ġpe",
        "ople"
      ],
      [
        "æĺ",
        "Ł"
      ],
      [
        "ç",
        "ĸ"
      ],
      [
        "ç",
        "ĭ"
      ],
      [
        "Ġd",
        "et"
      ],
      [
        "æĹ",
        "ł"
      ],
      [
        "Ġ",
        "if"
      ],
      [
        "o",
        "se"
      ],
      [
        "it",
        "e"
      ],
      [
        "å¢",
        "ŀ"
      ],
      [
        "é",
        "Ĵ"
      ],
      [
        "åĲĮ",
        "æĹ¶"
      ],
      [
        "è¿",
        "°"
      ],
      [
        "æĸ¹",
        "å¼ı"
      ],
      [
        "åĽ",
        "½"
      ],
      [
        "é",
        "»"
      ],
      [
        "å¤",
        "Ħ"
      ],
      [
        "Ġexam",
        "ples"
      ],
      [
        "æ",
        "®"
      ],
      [
        "Ġint",
        "o"
      ],
      [
        "æĮ",
        "ĩ"
      ],
      [
        "Ġhum",
        "an"
      ],
      [
        "åĲ",
        "ĳ"
      ],
      [
        "ç¤",
        "º"
      ],
      [
        "æķ°",
        "æį®"
      ],
      [
        "Ġ",
        "3"
      ],
      [
        "Ġ",
        "J"
      ],
      [
        "è",
        "ı"
      ],
      [
        "çİ¯",
        "å¢ĥ"
      ],
      [
        "al",
        "s"
      ],
      [
        "ers",
        "t"
      ],
      [
        "Ġe",
        "thical"
      ],
      [
        "ç»",
        "Ħ"
      ],
      [
        "ä¼",
        "ł"
      ],
      [
        "Ġdiffere",
        "nt"
      ],
      [
        "Ġk",
        "now"
      ],
      [
        "åº",
        "ı"
      ],
      [
        "Ġind",
        "ividual"
      ],
      [
        "æıĲ",
        "é«ĺ"
      ],
      [
        "rou",
        "nd"
      ],
      [
        "å°",
        "±"
      ],
      [
        "åı",
        "ĸ"
      ],
      [
        "åŃ",
        "ĺ"
      ],
      [
        "ä¸",
        "¤"
      ],
      [
        "çŁ",
        "¥"
      ],
      [
        "our",
        "ces"
      ],
      [
        "c",
        "k"
      ],
      [
        "å",
        "£"
      ],
      [
        "in",
        "es"
      ],
      [
        "è¾",
        "¾"
      ],
      [
        "Ġman",
        "y"
      ],
      [
        "æķ",
        "´"
      ],
      [
        "æł",
        "·"
      ],
      [
        "dit",
        "ional"
      ],
      [
        "om",
        "m"
      ],
      [
        "çĶ",
        "±"
      ],
      [
        "éĢ",
        "ł"
      ],
      [
        "å®ĥ",
        "ä»¬"
      ],
      [
        "u",
        "es"
      ],
      [
        "Ġm",
        "ent"
      ],
      [
        "Ġimport",
        "ant"
      ],
      [
        "Ġo",
        "pt"
      ],
      [
        "Ġlo",
        "c"
      ],
      [
        "p",
        "h"
      ],
      [
        "Ġpro",
        "cess"
      ],
      [
        "Ġalgorith",
        "ms"
      ],
      [
        "è®¾",
        "è®¡"
      ],
      [
        "Ġsoc",
        "ial"
      ],
      [
        "ver",
        "y"
      ],
      [
        "åĪ",
        "Ļ"
      ],
      [
        "ä¾ĭ",
        "å¦Ĥ"
      ],
      [
        "è®",
        "¤"
      ],
      [
        "Ġa",
        "ut"
      ],
      [
        "Ġs",
        "erv"
      ],
      [
        "g",
        "g"
      ],
      [
        "äº§",
        "åĵģ"
      ],
      [
        "è§",
        "Ħ"
      ],
      [
        "çľ",
        "ĭ"
      ],
      [
        "ve",
        "l"
      ],
      [
        "æĸ¹",
        "æ³ķ"
      ],
      [
        "Ġb",
        "en"
      ],
      [
        "åĽł",
        "æŃ¤"
      ],
      [
        "c",
        "are"
      ],
      [
        "p",
        "er"
      ],
      [
        "åĬ",
        "Ł"
      ],
      [
        "å»º",
        "è®®"
      ],
      [
        "Ġp",
        "os"
      ],
      [
        "æ",
        "¤"
      ],
      [
        "w",
        "e"
      ],
      [
        "åĮ",
        "º"
      ],
      [
        "i",
        "qu"
      ],
      [
        "Ġre",
        "al"
      ],
      [
        "æĹ",
        "¥"
      ],
      [
        "Ġredu",
        "ce"
      ],
      [
        "a",
        "f"
      ],
      [
        "ang",
        "u"
      ],
      [
        "Ġs",
        "k"
      ],
      [
        "Ġ",
        "ed"
      ],
      [
        "erst",
        "and"
      ],
      [
        "åĨ",
        "µ"
      ],
      [
        "m",
        "ot"
      ],
      [
        "åħ",
        "Ī"
      ],
      [
        "ç",
        "¥"
      ],
      [
        "åºĶ",
        "è¯¥"
      ],
      [
        "Ġth",
        "rough"
      ],
      [
        "Ġcon",
        "c"
      ],
      [
        "åıĳ",
        "å±ķ"
      ],
      [
        "è¯",
        "ķ"
      ],
      [
        "æ¡",
        "Ī"
      ],
      [
        "Ġenviron",
        "ment"
      ],
      [
        "åı",
        "£"
      ],
      [
        "Ġad",
        "v"
      ],
      [
        "åĪ",
        "«"
      ],
      [
        "Ġben",
        "ef"
      ],
      [
        "æ¸",
        "ħ"
      ],
      [
        "åĳ",
        "³"
      ],
      [
        "åħ",
        "ī"
      ],
      [
        "Ġdevelop",
        "ment"
      ],
      [
        "en",
        "g"
      ],
      [
        "å¦Ĥ",
        "ä½ķ"
      ],
      [
        "ç®",
        "¡"
      ],
      [
        "iv",
        "ers"
      ],
      [
        "åĲ",
        "Ħ"
      ],
      [
        "Ġr",
        "is"
      ],
      [
        "ro",
        "w"
      ],
      [
        "er",
        "gy"
      ],
      [
        "è®¡",
        "ç®Ĺ"
      ],
      [
        "ä¿¡",
        "æģ¯"
      ],
      [
        "Ġpro",
        "duct"
      ],
      [
        "è¾",
        "ĥ"
      ],
      [
        "è®",
        "º"
      ],
      [
        "èĩªå·±",
        "çļĦ"
      ],
      [
        "æĬ",
        "¤"
      ],
      [
        "åı",
        "į"
      ],
      [
        "åħ¶",
        "ä»ĸ"
      ],
      [
        "åĪ",
        "Ĺ"
      ],
      [
        "ç»",
        "Ĩ"
      ],
      [
        "ç©",
        "º"
      ],
      [
        "Ġg",
        "reat"
      ],
      [
        "e",
        "ar"
      ],
      [
        "æº",
        "Ĳ"
      ],
      [
        "j",
        "ect"
      ],
      [
        "çĶŁ",
        "æ´»"
      ],
      [
        "ä¸Ń",
        "çļĦ"
      ],
      [
        "Ġund",
        "erstand"
      ],
      [
        "è",
        "ĭ"
      ],
      [
        "h",
        "at"
      ],
      [
        "Ġpro",
        "gra"
      ],
      [
        "ç",
        "Ĭ"
      ],
      [
        "éĩ",
        "ĳ"
      ],
      [
        "Ġinclud",
        "ing"
      ],
      [
        "Ġacc",
        "ess"
      ],
      [
        "ĠĠĠĠ",
        "ĠĠĠ"
      ],
      [
        "è¯",
        "Ĩ"
      ],
      [
        "ç",
        "¦"
      ],
      [
        "o",
        "g"
      ],
      [
        "è£",
        "ħ"
      ],
      [
        "Ġar",
        "t"
      ],
      [
        "Ġw",
        "rit"
      ],
      [
        "Ġinc",
        "re"
      ],
      [
        "Ġp",
        "h"
      ],
      [
        "æĸ¹",
        "éĿ¢"
      ],
      [
        "Ġp",
        "ract"
      ],
      [
        "Ġus",
        "ing"
      ],
      [
        "é¡",
        "¹"
      ],
      [
        "æİ",
        "¥"
      ],
      [
        "Ġway",
        "s"
      ],
      [
        "Ġl",
        "angu"
      ],
      [
        "æĶ",
        "¯"
      ],
      [
        "Ġch",
        "all"
      ],
      [
        "åİ",
        "»"
      ],
      [
        "__",
        "__"
      ],
      [
        "im",
        "ate"
      ],
      [
        "æĸ",
        "Ń"
      ],
      [
        "è",
        "¨"
      ],
      [
        "Ġw",
        "ell"
      ],
      [
        "l",
        "l"
      ],
      [
        "Ġp",
        "ol"
      ],
      [
        "æĢ",
        "ģ"
      ],
      [
        "Ġ",
        "ra"
      ],
      [
        "C",
        "an"
      ],
      [
        "åİ",
        "Ł"
      ],
      [
        "b",
        "er"
      ],
      [
        "è¨",
        "Ģ"
      ],
      [
        "ç«",
        "ĭ"
      ],
      [
        "Ġg",
        "en"
      ],
      [
        "éħ",
        "į"
      ],
      [
        "æ·",
        "±"
      ],
      [
        "t",
        "e"
      ],
      [
        "ä¸",
        "ī"
      ],
      [
        "ç§",
        "ĳ"
      ],
      [
        "ĠF",
        "or"
      ],
      [
        "çº",
        "¿"
      ],
      [
        "ç",
        "ħ"
      ],
      [
        "æ",
        "¼"
      ],
      [
        "åķ",
        "Ĩ"
      ],
      [
        "æĿ",
        "Ĳ"
      ],
      [
        "Ġsign",
        "ific"
      ],
      [
        "Ġg",
        "u"
      ],
      [
        "Ġde",
        "cis"
      ],
      [
        "Ġtra",
        "in"
      ],
      [
        "Ġa",
        "g"
      ],
      [
        "Ġc",
        "reat"
      ],
      [
        "å®",
        "Į"
      ],
      [
        "æĹ¶",
        "éĹ´"
      ],
      [
        "Ġon",
        "e"
      ],
      [
        "è",
        "Ħ"
      ],
      [
        "Ġn",
        "at"
      ],
      [
        "åŃ¦",
        "ä¹ł"
      ],
      [
        "çļĦæ",
        "ķ"
      ],
      [
        "c",
        "ed"
      ],
      [
        "Ġwhe",
        "n"
      ],
      [
        "Ġb",
        "i"
      ],
      [
        "è",
        "İ"
      ],
      [
        "æĽ´",
        "åĬł"
      ],
      [
        "iv",
        "es"
      ],
      [
        "p",
        "ort"
      ],
      [
        "å·¥",
        "ä½ľ"
      ],
      [
        "v",
        "ing"
      ],
      [
        "Ġbe",
        "en"
      ],
      [
        "æĻ",
        "º"
      ],
      [
        "Ġl",
        "ife"
      ],
      [
        "å¼",
        "ķ"
      ],
      [
        "ar",
        "m"
      ],
      [
        "çİ",
        "ĩ"
      ],
      [
        "çĶ¨",
        "æĪ·"
      ],
      [
        "ä¹",
        "ī"
      ],
      [
        "ä»",
        "½"
      ],
      [
        "è¯",
        "Ŀ"
      ],
      [
        "in",
        "ess"
      ],
      [
        "c",
        "om"
      ],
      [
        "åº",
        "·"
      ],
      [
        "åĩ",
        "ı"
      ],
      [
        "ä»",
        "Ģ"
      ],
      [
        "è¾",
        "ĵ"
      ],
      [
        "Ġv",
        "ari"
      ],
      [
        "c",
        "on"
      ],
      [
        "Ġmo",
        "d"
      ],
      [
        "ä»Ģ",
        "ä¹Ī"
      ],
      [
        "Ġen",
        "ergy"
      ],
      [
        "æĬĢ",
        "æľ¯"
      ],
      [
        "ert",
        "ain"
      ],
      [
        "m",
        "m"
      ],
      [
        "ver",
        "all"
      ],
      [
        "åĪ",
        "Ĵ"
      ],
      [
        "Ġro",
        "bots"
      ],
      [
        "Ġor",
        "gan"
      ],
      [
        "æİ",
        "¨"
      ],
      [
        "ant",
        "s"
      ],
      [
        "åĩ",
        "Ĩ"
      ],
      [
        "d",
        "s"
      ],
      [
        "æŀ",
        "ģ"
      ],
      [
        "ç",
        "Ļ"
      ],
      [
        "Ġre",
        "qu"
      ],
      [
        "Ġ",
        "ess"
      ],
      [
        "ç®",
        "Ģ"
      ],
      [
        "ust",
        "ain"
      ],
      [
        "æ",
        "¨"
      ],
      [
        "Ġst",
        "r"
      ],
      [
        "c",
        "ing"
      ],
      [
        "ab",
        "ility"
      ],
      [
        "re",
        "e"
      ],
      [
        "Ġed",
        "uc"
      ],
      [
        "åİ",
        "Ĩ"
      ],
      [
        "Ġcre",
        "ate"
      ],
      [
        "åģ¥",
        "åº·"
      ],
      [
        "Ġdes",
        "ign"
      ],
      [
        "i",
        "ps"
      ],
      [
        "åģ",
        "ļ"
      ],
      [
        "èĬ",
        "±"
      ],
      [
        "in",
        "k"
      ],
      [
        "èı",
        "ľ"
      ],
      [
        "æī",
        "¾"
      ],
      [
        "æ®",
        "µ"
      ],
      [
        "æµ",
        "ĭ"
      ],
      [
        "Ġ",
        "V"
      ],
      [
        "ĠB",
        "y"
      ],
      [
        "å",
        "Ķ"
      ],
      [
        "é¦",
        "ĸ"
      ],
      [
        "è¯",
        "į"
      ],
      [
        "Ġwhe",
        "re"
      ],
      [
        "Ġdis",
        "c"
      ],
      [
        "äºĨ",
        "è§£"
      ],
      [
        "r",
        "ic"
      ],
      [
        "ä¸",
        "Ķ"
      ],
      [
        "è¶",
        "³"
      ],
      [
        "æĺ¯",
        "ä¸Ģä¸ª"
      ],
      [
        "ar",
        "ch"
      ],
      [
        "ç§",
        "¯"
      ],
      [
        "å¸",
        "¦"
      ],
      [
        "Ġwh",
        "ile"
      ],
      [
        "Ġsignific",
        "ant"
      ],
      [
        "çł",
        "ģ"
      ],
      [
        "æĪ",
        "¿"
      ],
      [
        "Ġbe",
        "ing"
      ],
      [
        "Ġlangu",
        "age"
      ],
      [
        "it",
        "ive"
      ],
      [
        "2",
        "0"
      ],
      [
        "Ġanalyz",
        "e"
      ],
      [
        "æĻ",
        "¯"
      ],
      [
        "è",
        "Į"
      ],
      [
        "ri",
        "b"
      ],
      [
        "æ¨",
        "¡"
      ],
      [
        "ĠS",
        "t"
      ],
      [
        "è´",
        "¹"
      ],
      [
        "'",
        "t"
      ],
      [
        "Ġhealth",
        "care"
      ],
      [
        "Ġexperi",
        "ence"
      ],
      [
        "Ġ",
        "5"
      ],
      [
        "ä¸ª",
        "äºº"
      ],
      [
        "ay",
        "s"
      ],
      [
        "è±",
        "¡"
      ],
      [
        "p",
        "lo"
      ],
      [
        "Ġw",
        "ould"
      ],
      [
        "èĻ",
        "ĳ"
      ],
      [
        "æĶ",
        "¶"
      ],
      [
        "é¢",
        "Ħ"
      ],
      [
        "é¢",
        "Ĩ"
      ],
      [
        "ä¿Ŀ",
        "æĮģ"
      ],
      [
        "en",
        "ces"
      ],
      [
        "åı",
        "ª"
      ],
      [
        "èĩ",
        "´"
      ],
      [
        "æĪ",
        "ı"
      ],
      [
        "Ġment",
        "al"
      ],
      [
        "Ġfe",
        "w"
      ],
      [
        "at",
        "es"
      ],
      [
        "è¿ĩ",
        "ç¨ĭ"
      ],
      [
        "å®ī",
        "åħ¨"
      ],
      [
        "Ġs",
        "ustain"
      ],
      [
        "Ġw",
        "ere"
      ],
      [
        "å¤",
        "ª"
      ],
      [
        "ç",
        "Į"
      ],
      [
        "Ġspec",
        "ific"
      ],
      [
        "Ġwor",
        "ld"
      ],
      [
        "çŃ",
        "Ķ"
      ],
      [
        "``",
        "`"
      ],
      [
        "Ġt",
        "ake"
      ],
      [
        "åħ",
        "»"
      ],
      [
        "éĢ",
        "Ł"
      ],
      [
        "e",
        "ver"
      ],
      [
        "S",
        "S"
      ],
      [
        "éĶ",
        "Ģ"
      ],
      [
        "Ġb",
        "o"
      ],
      [
        "he",
        "s"
      ],
      [
        "Ġm",
        "us"
      ],
      [
        "æľį",
        "åĬ¡"
      ],
      [
        "è§",
        "Ĵ"
      ],
      [
        "t",
        "en"
      ],
      [
        "æŀ",
        "Ĳ"
      ],
      [
        "p",
        "ow"
      ],
      [
        "d",
        "ict"
      ],
      [
        "v",
        "ent"
      ],
      [
        "1",
        "0"
      ],
      [
        "çļĦæ",
        "Ĺ"
      ],
      [
        "ĸ",
        "çķ"
      ],
      [
        "Ġpro",
        "t"
      ],
      [
        "ç½",
        "®"
      ],
      [
        "Ġh",
        "igh"
      ],
      [
        "Ġb",
        "us"
      ],
      [
        "Ġind",
        "ust"
      ],
      [
        "åĲ",
        "¦"
      ],
      [
        "c",
        "ial"
      ],
      [
        "äºº",
        "ä»¬"
      ],
      [
        "ĠA",
        "s"
      ],
      [
        "åĳ",
        "Ĭ"
      ],
      [
        "ad",
        "e"
      ],
      [
        "æĶ",
        "¹"
      ],
      [
        "ç",
        "Ĺ"
      ],
      [
        "Ġh",
        "ad"
      ],
      [
        "Ġhe",
        "r"
      ],
      [
        "Ġj",
        "ust"
      ],
      [
        "ï¼",
        "Ľ"
      ],
      [
        "è´",
        "Ń"
      ],
      [
        "ç¬",
        "¬"
      ],
      [
        "é",
        "ĵ"
      ],
      [
        "Ġw",
        "ater"
      ],
      [
        "Ġf",
        "ood"
      ],
      [
        "éĺ",
        "Ł"
      ],
      [
        "a",
        "us"
      ],
      [
        "Ġchall",
        "eng"
      ],
      [
        "åħ",
        "į"
      ],
      [
        "æĸĩ",
        "åĮĸ"
      ],
      [
        "Ġmo",
        "st"
      ],
      [
        "é",
        "¸"
      ],
      [
        "ç½",
        "ĳ"
      ],
      [
        "çĽ",
        "´"
      ],
      [
        "Ġs",
        "m"
      ],
      [
        "Ġact",
        "iv"
      ],
      [
        "plo",
        "y"
      ],
      [
        "O",
        "verall"
      ],
      [
        "å¿",
        "«"
      ],
      [
        "ru",
        "ct"
      ],
      [
        "Ġindividual",
        "s"
      ],
      [
        "å§",
        "ĭ"
      ],
      [
        "g",
        "ies"
      ],
      [
        "æŁ",
        "¥"
[...]
